{
  "version": "1.0",
  "truncation": {
    "direction": "Right",
    "max_length": 2048,
    "strategy": "LongestFirst",
    "stride": 0
  },
  "padding": {
    "strategy": "BatchLongest",
    "direction": "Right",
    "pad_to_multiple_of": null,
    "pad_id": 30273,
    "pad_type_id": 30273,
    "pad_token": "[PAD]"
  },
  "added_tokens": [
    {
      "id": 30272,
      "content": "[CLS]",
      "single_word": true,
      "lstrip": false,
      "rstrip": false,
      "normalized": false,
      "special": true
    },
    {
      "id": 30273,
      "content": "[PAD]",
      "single_word": true,
      "lstrip": false,
      "rstrip": false,
      "normalized": false,
      "special": true
    },
    {
      "id": 30274,
      "content": "[MASK]",
      "single_word": true,
      "lstrip": false,
      "rstrip": false,
      "normalized": false,
      "special": true
    },
    {
      "id": 30275,
      "content": "[SEP]",
      "single_word": true,
      "lstrip": false,
      "rstrip": false,
      "normalized": false,
      "special": true
    },
    {
      "id": 30276,
      "content": "[UNK]",
      "single_word": true,
      "lstrip": false,
      "rstrip": false,
      "normalized": false,
      "special": true
    }
  ],
  "normalizer": {
    "type": "Sequence",
    "normalizers": [
      {
        "type": "NFC"
      }
    ]
  },
  "pre_tokenizer": {
    "type": "Sequence",
    "pretokenizers": [
      {
        "type": "Split",
        "pattern": {
          "Regex": "(?i:'s|'t|'re|'ve|'m|'ll|'d)|[^\\r\\n\\p{L}\\p{N}]?\\p{L}+|\\p{N}| ?[^\\s\\p{L}\\p{N}]+[\\r\\n]*|\\s*[\\r\\n]+|\\s+(?!\\S)|\\s+"
        },
        "behavior": "Isolated",
        "invert": false
      },
      {
        "type": "ByteLevel",
        "add_prefix_space": false,
        "trim_offsets": true,
        "use_regex": false
      }
    ]
  },
  "post_processor": {
    "type": "Sequence",
    "processors": [
      {
        "type": "ByteLevel",
        "add_prefix_space": true,
        "trim_offsets": false,
        "use_regex": true
      },
      {
        "type": "TemplateProcessing",
        "single": [
          {
            "SpecialToken": {
              "id": "[CLS]",
              "type_id": 0
            }
          },
          {
            "Sequence": {
              "id": "A",
              "type_id": 0
            }
          },
          {
            "SpecialToken": {
              "id": "[SEP]",
              "type_id": 0
            }
          }
        ],
        "pair": [
          {
            "SpecialToken": {
              "id": "[CLS]",
              "type_id": 0
            }
          },
          {
            "Sequence": {
              "id": "A",
              "type_id": 0
            }
          },
          {
            "SpecialToken": {
              "id": "[SEP]",
              "type_id": 0
            }
          },
          {
            "Sequence": {
              "id": "B",
              "type_id": 1
            }
          },
          {
            "SpecialToken": {
              "id": "[SEP]",
              "type_id": 1
            }
          }
        ],
        "special_tokens": {
          "[CLS]": {
            "id": "[CLS]",
            "ids": [
              30272
            ],
            "tokens": [
              "[CLS]"
            ]
          },
          "[SEP]": {
            "id": "[SEP]",
            "ids": [
              30275
            ],
            "tokens": [
              "[SEP]"
            ]
          }
        }
      }
    ]
  },
  "decoder": {
    "type": "ByteLevel",
    "add_prefix_space": true,
    "trim_offsets": true,
    "use_regex": true
  },
  "model": {
    "type": "BPE",
    "dropout": null,
    "unk_token": null,
    "continuing_subword_prefix": null,
    "end_of_word_suffix": null,
    "fuse_unk": false,
    "byte_fallback": true,
    "ignore_merges": false,
    "vocab": {
      "!": 0,
      "#": 1,
      "$": 2,
      "%": 3,
      "&": 4,
      "(": 5,
      ")": 6,
      "*": 7,
      "+": 8,
      ",": 9,
      "-": 10,
      ".": 11,
      "/": 12,
      "0": 13,
      "1": 14,
      "2": 15,
      "3": 16,
      "4": 17,
      "5": 18,
      "6": 19,
      "7": 20,
      "8": 21,
      "9": 22,
      ":": 23,
      ";": 24,
      "<": 25,
      "=": 26,
      ">": 27,
      "?": 28,
      "@": 29,
      "A": 30,
      "B": 31,
      "C": 32,
      "D": 33,
      "E": 34,
      "F": 35,
      "G": 36,
      "H": 37,
      "I": 38,
      "J": 39,
      "K": 40,
      "L": 41,
      "M": 42,
      "N": 43,
      "O": 44,
      "P": 45,
      "Q": 46,
      "R": 47,
      "S": 48,
      "T": 49,
      "U": 50,
      "V": 51,
      "W": 52,
      "X": 53,
      "Y": 54,
      "Z": 55,
      "[": 56,
      "\\": 57,
      "]": 58,
      "^": 59,
      "_": 60,
      "`": 61,
      "a": 62,
      "b": 63,
      "c": 64,
      "d": 65,
      "e": 66,
      "f": 67,
      "g": 68,
      "h": 69,
      "i": 70,
      "j": 71,
      "k": 72,
      "l": 73,
      "m": 74,
      "n": 75,
      "o": 76,
      "p": 77,
      "q": 78,
      "r": 79,
      "s": 80,
      "t": 81,
      "u": 82,
      "v": 83,
      "w": 84,
      "x": 85,
      "y": 86,
      "z": 87,
      "{": 88,
      "|": 89,
      "}": 90,
      "~": 91,
      "¡": 92,
      "¢": 93,
      "£": 94,
      "¤": 95,
      "¥": 96,
      "¦": 97,
      "§": 98,
      "¨": 99,
      "©": 100,
      "ª": 101,
      "«": 102,
      "¬": 103,
      "®": 104,
      "¯": 105,
      "°": 106,
      "±": 107,
      "²": 108,
      "³": 109,
      "´": 110,
      "µ": 111,
      "¶": 112,
      "·": 113,
      "¸": 114,
      "¹": 115,
      "º": 116,
      "»": 117,
      "¼": 118,
      "½": 119,
      "¾": 120,
      "¿": 121,
      "Â": 122,
      "Ã": 123,
      "Ä": 124,
      "Å": 125,
      "Æ": 126,
      "Ç": 127,
      "Ê": 128,
      "Ì": 129,
      "Î": 130,
      "Ï": 131,
      "Ð": 132,
      "Ñ": 133,
      "×": 134,
      "Ù": 135,
      "Ú": 136,
      "à": 137,
      "á": 138,
      "â": 139,
      "ã": 140,
      "ä": 141,
      "å": 142,
      "æ": 143,
      "ç": 144,
      "è": 145,
      "é": 146,
      "ê": 147,
      "î": 148,
      "ï": 149,
      "ð": 150,
      "ñ": 151,
      "ó": 152,
      "ô": 153,
      "ĉ": 154,
      "Ġ": 155,
      "ġ": 156,
      "Ģ": 157,
      "ģ": 158,
      "Ĥ": 159,
      "ĥ": 160,
      "Ħ": 161,
      "ħ": 162,
      "Ĩ": 163,
      "ĩ": 164,
      "Ī": 165,
      "ī": 166,
      "Ĭ": 167,
      "ĭ": 168,
      "Į": 169,
      "į": 170,
      "İ": 171,
      "ı": 172,
      "Ĳ": 173,
      "ĳ": 174,
      "Ĵ": 175,
      "ĵ": 176,
      "Ķ": 177,
      "ķ": 178,
      "ĸ": 179,
      "Ĺ": 180,
      "ĺ": 181,
      "Ļ": 182,
      "ļ": 183,
      "Ľ": 184,
      "ľ": 185,
      "Ŀ": 186,
      "ŀ": 187,
      "Ł": 188,
      "ł": 189,
      "Ń": 190,
      "á»": 191,
      "áº": 192,
      "ng": 193,
      "Ġt": 194,
      "Ġc": 195,
      "ĠÄ": 196,
      "ĠÄĳ": 197,
      "nh": 198,
      "Ãł": 199,
      "Ġl": 200,
      "Æ°": 201,
      "hÃ": 202,
      "Ġm": 203,
      "Ġv": 204,
      "Ġb": 205,
      "há»": 206,
      "Ġn": 207,
      "Ġnh": 208,
      "Ġk": 209,
      "háº": 210,
      "Æ°á»": 211,
      "Ã¡": 212,
      "Ã´": 213,
      "Ã³": 214,
      "Ġng": 215,
      "Ġg": 216,
      "Ġs": 217,
      "Ġtr": 218,
      "iá»": 219,
      "Ãª": 220,
      "áº¿": 221,
      "á»Ļ": 222,
      "áº¡": 223,
      "Ġr": 224,
      "Ġch": 225,
      "Ã¬": 226,
      "Ãªn": 227,
      "hÃ´": 228,
      "áº¥": 229,
      "Ã¢": 230,
      "ĠÄĳá»": 231,
      "Ŀi": 232,
      "Ġd": 233,
      "Ġh": 234,
      "qu": 235,
      "ĠlÃł": 236,
      "Ġcá»": 237,
      "Æ¡": 238,
      "áº£": 239,
      "Ġp": 240,
      "Ã´i": 241,
      "á»ĳ": 242,
      "hÃ´ng": 243,
      "Ġvá»": 244,
      "Ġth": 245,
      "iáº¿": 246,
      "ĠvÃł": 247,
      "á»Ļt": 248,
      "ĠkhÃ´ng": 249,
      "Ġchá»": 250,
      "Ġx": 251,
      "Ġtháº": 252,
      "áº§": 253,
      "Ã£": 254,
      "ĠT": 255,
      "Ġqu": 256,
      "áºŃ": 257,
      "Ġmá»Ļt": 258,
      "Æ°á»Ŀi": 259,
      "áº¯": 260,
      "ĠcÃ³": 261,
      "Ľi": 262,
      "anh": 263,
      "áº¡i": 264,
      "§a": 265,
      "Ġhá»": 266,
      "Ġtá»": 267,
      "ĠthÃ": 268,
      "Ġcá»§a": 269,
      "ay": 270,
      "Ġthá»": 271,
      "ĠtÃ´i": 272,
      "á»ĵ": 273,
      "iá»ĩ": 274,
      "ĠchÃ": 275,
      "Ã´ng": 276,
      "ĠnhÆ°": 277,
      "Æ°á»£": 278,
      "á»¯": 279,
      "ĠnÃ³": 280,
      "ĠcÃ¡": 281,
      "Ġgi": 282,
      "ĠnÃł": 283,
      "Ã²": 284,
      "ong": 285,
      "ai": 286,
      "uy": 287,
      "ĠngÆ°á»Ŀi": 288,
      "Ã¬nh": 289,
      "Äĥ": 290,
      "©ng": 291,
      "ch": 292,
      "áº·": 293,
      "áº¥t": 294,
      "ao": 295,
      "Ãº": 296,
      "on": 297,
      "á»Ł": 298,
      "Ġcho": 299,
      "Ġkh": 300,
      "Æ°á»Ľ": 301,
      "ĠÄĳÃ£": 302,
      "uá»ĳ": 303,
      "Æ°á»£c": 304,
      "Ġanh": 305,
      "âĢ": 306,
      "Ġbá»": 307,
      "Ġláº¡i": 308,
      "áº¥y": 309,
      "iá»ģ": 310,
      "ĠmÃł": 311,
      "Ġcháº": 312,
      "Ġlá»": 313,
      "Ġra": 314,
      "Ġmá»": 315,
      "ang": 316,
      "ĠÄĳÆ°á»£c": 317,
      "Æ°Æ¡": 318,
      "ĠÄĳi": 319,
      "á»ĵi": 320,
      "Ġpháº": 321,
      "Ã¹": 322,
      "£i": 323,
      "hÃ¡": 324,
      "Ġháº": 325,
      "áº¿n": 326,
      "Å©ng": 327,
      "ĠN": 328,
      "..": 329,
      "an": 330,
      "Ãłng": 331,
      "ĠnÃ³i": 332,
      "Ġcon": 333,
      "á»¯ng": 334,
      "Ġgiá»": 335,
      "Æ°á»Ľc": 336,
      "ĠC": 337,
      "Ġtrong": 338,
      "Ã¢y": 339,
      "ĠH": 340,
      "Ġnhá»¯ng": 341,
      "Ġvá»Ľi": 342,
      "iáº¿t": 343,
      "Ġsá»": 344,
      "ĠcÅ©ng": 345,
      "Ġngh": 346,
      "au": 347,
      "áº§n": 348,
      "ĠÄĳÃ³": 349,
      "em": 350,
      "Ġcáº£": 351,
      "Æ°Æ¡ng": 352,
      "ÃŃ": 353,
      "Ã¢n": 354,
      "ĠlÃłm": 355,
      "ĠÄĳáº¿n": 356,
      "ot": 357,
      "Æ°á»Ŀ": 358,
      "iÃªn": 359,
      "ĠĠ": 360,
      "Ã¢u": 361,
      "quot": 362,
      "Ã²n": 363,
      "ĠthÃ¬": 364,
      "Ãłn": 365,
      "ĠvÃło": 366,
      "ĠÃ´ng": 367,
      "uyá»": 368,
      "Æ°á»Ŀng": 369,
      "Ġpháº£i": 370,
      "±ng": 371,
      "inh": 372,
      "áº§u": 373,
      "ĠcÃ´": 374,
      "Ġta": 375,
      "Ġvá»ģ": 376,
      "Ãłi": 377,
      "áº¯t": 378,
      "Ä©": 379,
      "Ġtháº¥": 380,
      "Ġá»Ł": 381,
      "á»į": 382,
      "ĠgÃ¬": 383,
      "iá»ģu": 384,
      "ĠÄĳá»ĥ": 385,
      "áº¹": 386,
      "Æ°a": 387,
      "Ġrá»ĵi": 388,
      "ĠlÃªn": 389,
      "ĠcÃ¡i": 390,
      "ĠmÃ¬nh": 391,
      "áº½": 392,
      "Ã©": 393,
      "ĠL": 394,
      "ĠchÃº": 395,
      "ĠnÃły": 396,
      "ĠphÃ": 397,
      "Ġ-": 398,
      "Ġem": 399,
      "Ġbiáº¿t": 400,
      "ĠcÃ²n": 401,
      "Ġtháº¥y": 402,
      "ĠnhÃł": 403,
      "ĠM": 404,
      "iá»ĥ": 405,
      "Ġhá»į": 406,
      "Æ¡n": 407,
      "ĠB": 408,
      "Ãłnh": 409,
      "Ã¡i": 410,
      "Äĥm": 411,
      "áº«": 412,
      "áº·t": 413,
      "Ġtiáº¿": 414,
      "ĠhÃ": 415,
      "Ã¹ng": 416,
      "©c": 417,
      "Ġkhi": 418,
      "am": 419,
      "Ãªu": 420,
      "Ġnhá»": 421,
      "Æ¡i": 422,
      "áºŃy": 423,
      "ĠnÃło": 424,
      "ĠV": 425,
      "ĠÄĲ": 426,
      "Ġchá»ī": 427,
      "Ġtháº¿": 428,
      "Ġtá»«": 429,
      "Ãły": 430,
      "Ãºc": 431,
      "Ġho": 432,
      "Ġ.": 433,
      "áºŃn": 434,
      "Ã¡c": 435,
      "uyá»ĩ": 436,
      "ÄĲ": 437,
      "Ńa": 438,
      "áº±ng": 439,
      "Ã½": 440,
      "ung": 441,
      "ĠÄĳáº§u": 442,
      "ıi": 443,
      "á»ķ": 444,
      "¢n": 445,
      "Ġhai": 446,
      "Ġdá»": 447,
      "áº»": 448,
      "ĠP": 449,
      "Ġtay": 450,
      "áº«n": 451,
      "Ġthá»ĥ": 452,
      "ĠbÃł": 453,
      "Ġy": 454,
      "Æ°ng": 455,
      "ĠK": 456,
      "áº¡n": 457,
      "ĠnhÆ°ng": 458,
      "ĠkhÃ¡": 459,
      "TÃ´i": 460,
      "³ng": 461,
      "ĠnhÃ¬": 462,
      "ĠÄĳÃ¡": 463,
      "iá»ĩn": 464,
      "Ġná»¯": 465,
      "ĠnhÃ¬n": 466,
      "ĠtrÃªn": 467,
      "eo": 468,
      "...": 469,
      "Ġsáº½": 470,
      "uyá»ĩn": 471,
      "in": 472,
      "Ġsao": 473,
      "Ńt": 474,
      "Ġáº¥y": 475,
      "Ã¢m": 476,
      "Ġgiá»Ŀ": 477,
      "¿t": 478,
      "á»Ļc": 479,
      "Anh": 480,
      "áºŃt": 481,
      "±c": 482,
      "Ã¡o": 483,
      "Ġmáº·t": 484,
      "«ng": 485,
      "Ġngá»": 486,
      "Äĥn": 487,
      "Ġchá»ĭ": 488,
      "uá»ĳng": 489,
      "Ġsá»ĳ": 490,
      "ĠcÃ¡c": 491,
      "uá»ĳn": 492,
      "ĠvÃ¬": 493,
      "Ġbá»ĭ": 494,
      "ĠâĢ": 495,
      "á»Ļi": 496,
      "ĠkhÃ": 497,
      "Ġsá»±": 498,
      "ĵng": 499,
      "ĠTh": 500,
      "Ã²ng": 501,
      "ĠS": 502,
      "iá»ģn": 503,
      "áº¯m": 504,
      "ĠchÃºng": 505,
      "«a": 506,
      ":-": 507,
      "Ġmáº¯t": 508,
      "Ġkhá»": 509,
      "ĠNg": 510,
      "ĠsÃ¡": 511,
      "¥c": 512,
      "ĥn": 513,
      "ĠTr": 514,
      "ĠnghÄ©": 515,
      "ĠÄĳang": 516,
      "Ġká»": 517,
      "Ġmá»Ľi": 518,
      "âĢĿ": 519,
      "ĠngÃły": 520,
      "iá»ĥu": 521,
      "Ġph": 522,
      "á»ķi": 523,
      "Ġná»¯a": 524,
      "Ġsau": 525,
      "Äĥng": 526,
      "Ġtrá»": 527,
      "ĠváºŃy": 528,
      "á»Ļng": 529,
      "Ng": 530,
      "ĠÄĳÃ¢y": 531,
      "en": 532,
      "ĠlÃºc": 533,
      "Ġ&": 534,
      "Ġphá»": 535,
      "Ã´n": 536,
      "iáº¿n": 537,
      "ĠÄĳÃ¢u": 538,
      "ĠtrÆ°á»Ľc": 539,
      "Nh": 540,
      "Ġmuá»ĳn": 541,
      "Ġbáº£": 542,
      "Ã¡n": 543,
      "iá»ĩc": 544,
      "á»ĳi": 545,
      "Ġtiáº¿ng": 546,
      "ĠnÃªn": 547,
      "Ġváº«n": 548,
      "ĠD": 549,
      "Ġqua": 550,
      "Ġchuyá»ĩn": 551,
      "áº¿t": 552,
      "Ġnghe": 553,
      "Ġ,": 554,
      "ĠcÆ°á»Ŀi": 555,
      "Ġmáº¹": 556,
      "Ĺi": 557,
      "ĠĠĠĠ": 558,
      "ĠnÆ°á»Ľc": 559,
      "ĠnÃłng": 560,
      "ia": 561,
      "Ġbu": 562,
      "áº¯c": 563,
      "ĠhÆ¡n": 564,
      "ĠnÄĥm": 565,
      "Tr": 566,
      "&quot": 567,
      "Å©": 568,
      "Ġxuá»ĳng": 569,
      "Ġviá»ĩc": 570,
      "Ġná»": 571,
      "áºŃp": 572,
      "áº©": 573,
      "iá»ĩt": 574,
      "hi": 575,
      "Ġhá»ıi": 576,
      "Ġtheo": 577,
      "Ġráº¥t": 578,
      "áº¡nh": 579,
      "Ġrá»": 580,
      "Æ°á»Ł": 581,
      "Ġcá»©": 582,
      "áº¿u": 583,
      "ĠcÃ´ng": 584,
      "ĠthÃłnh": 585,
      "ĠtháºŃt": 586,
      "ĠchÃŃ": 587,
      "ĠÄĥn": 588,
      "ĠâĢľ": 589,
      "ĠquÃ¡": 590,
      "Ġvá»«a": 591,
      "Ġai": 592,
      "ĠcÃ¹ng": 593,
      "Ġnhiá»ģu": 594,
      "áº·c": 595,
      "Ġngo": 596,
      "Æ°á»Łng": 597,
      "áº§m": 598,
      "ĠÄĳá»ģ": 599,
      "Ġhay": 600,
      "Ġlo": 601,
      "Ãło": 602,
      "ĠtÃ¬nh": 603,
      "ĠÄĳá»ĭ": 604,
      "Ãµ": 605,
      "Ġnhau": 606,
      "Ġto": 607,
      "hÃ´i": 608,
      "Ġtá»Ľi": 609,
      "im": 610,
      "ÃĶ": 611,
      "ĠbÃªn": 612,
      "áº¡c": 613,
      "Ġ?": 614,
      "Ġtu": 615,
      "Ãªm": 616,
      "áº¯ng": 617,
      "uá»Ļc": 618,
      "Ġba": 619,
      "Ġhá»įc": 620,
      "Ġlá»Ŀi": 621,
      "Ã¨": 622,
      "ĠkhÃ¡c": 623,
      "ĠcÃ¡ch": 624,
      "ĠphÃ¡": 625,
      "Ã¡t": 626,
      "ĠchÆ°a": 627,
      "Ġháº¡": 628,
      "Ġbao": 629,
      "iáº¿c": 630,
      "Ġcháº³ng": 631,
      "amp": 632,
      "NhÆ°ng": 633,
      "Qu": 634,
      "uyÃªn": 635,
      "Ġlá»Ľ": 636,
      "Ġláº¥y": 637,
      "Ãºng": 638,
      "Ġtá»±": 639,
      "Ġtháº§": 640,
      "ģn": 641,
      "áº¡o": 642,
      "ĠkhÃ³": 643,
      "áº£i": 644,
      "Ġsá»ĳng": 645,
      "Ã¡nh": 646,
      "hÃº": 647,
      "Ġcáº£m": 648,
      "Ġláº§n": 649,
      "Ġngá»ĵi": 650,
      "ĠÄĳÆ°á»Ŀng": 651,
      "Ġhá»ĵ": 652,
      "ĠlÃ²ng": 653,
      ";#": 654,
      "ÃŃnh": 655,
      "Æ°á»£ng": 656,
      "ĠyÃªu": 657,
      "Ġháº¿t": 658,
      "áº§y": 659,
      "Ġlu": 660,
      "ÃĶng": 661,
      "ĠÃ½": 662,
      "áº·p": 663,
      "ĠchÃłng": 664,
      "ĠnhÃ¢n": 665,
      "Ġbáº±ng": 666,
      "Ġbáº¡n": 667,
      "áº¯n": 668,
      "įng": 669,
      "ĠthÃ¡": 670,
      "ĠG": 671,
      "ĠhÃ´": 672,
      "Ġnháº¥t": 673,
      "Ã£o": 674,
      "Ã¡m": 675,
      "ĳi": 676,
      "ĠÄĳiá»ģu": 677,
      "Ġráº±ng": 678,
      "©a": 679,
      "¯n": 680,
      "Ġnhá»ı": 681,
      "á»ĵng": 682,
      "ĠchÃ¡": 683,
      "Ġláº¯m": 684,
      "ĠnhiÃªn": 685,
      "Ġkho": 686,
      "Ġnay": 687,
      "Ã³c": 688,
      "Tháº": 689,
      "áºŃu": 690,
      "áº£ng": 691,
      "áº·ng": 692,
      "ĠmÃ¡": 693,
      "Ġxe": 694,
      "iÃªu": 695,
      "á»ĵn": 696,
      "ua": 697,
      "Ġkháº": 698,
      "ĠgÃ¡i": 699,
      "ĠnháºŃn": 700,
      "ĠÄĳá»Ŀi": 701,
      "Ġchiáº¿c": 702,
      "Ã¬m": 703,
      "ĠÄĳá»©ng": 704,
      "ĠthÃ¢n": 705,
      "Ch": 706,
      "Ġtrá»Ł": 707,
      "Ġquy": 708,
      "¯c": 709,
      "Ġgiá»¯": 710,
      "Ġcá»Ńa": 711,
      "áº¥u": 712,
      "²ng": 713,
      "ĠÄĳá»Ļng": 714,
      "iá»ĩu": 715,
      "Ġbáº£o": 716,
      "Ġcháº¡": 717,
      "á»įi": 718,
      "Ġmáº¥y": 719,
      "áº±": 720,
      "Æ°á»Ľi": 721,
      "¯ng": 722,
      "Ġquan": 723,
      "ĠÄĳá»ĭnh": 724,
      "Ġcháº¿t": 725,
      "ĠÄĳá»ĵng": 726,
      "ĳng": 727,
      "áº¥n": 728,
      "ĠtÃ¢m": 729,
      "ĠchÃŃnh": 730,
      "Æ°Æ¡i": 731,
      "Em": 732,
      "áº¡t": 733,
      "ĠÄĳÆ°a": 734,
      "ĠchÃ¢n": 735,
      "ĠtÃ¬m": 736,
      "há»ĭ": 737,
      "Ġá»": 738,
      "Ġlá»Ľn": 739,
      "Ġthá»©": 740,
      "ui": 741,
      "ĠthÃ´i": 742,
      "ĠphÃ²ng": 743,
      "Ġtho": 744,
      "&amp": 745,
      "ĠÄĳÃłn": 746,
      "Ġhiá»ĥu": 747,
      "ĠvÃ´": 748,
      "Ġthá»Ŀi": 749,
      "Ġbáº¯t": 750,
      "Ġgáº·p": 751,
      "Ġháº¯n": 752,
      ".-": 753,
      "iáº¿u": 754,
      "ĠthÆ°á»Ŀng": 755,
      "Ġmá»į": 756,
      "ĠÄĳá»ģu": 757,
      "ĠbÃ©": 758,
      "ĠhÃ¬": 759,
      "Ġbá»ĳ": 760,
      "Æ°á»Ľng": 761,
      "Ġcuá»Ļc": 762,
      "ĠngoÃłi": 763,
      "Ã¡ng": 764,
      "ĠsÃ¡ng": 765,
      "CÃ´": 766,
      "ĠHo": 767,
      "ĠhÃ¬nh": 768,
      "Ńch": 769,
      "Ġbá»ı": 770,
      "Ġcáº§n": 771,
      "Ġgia": 772,
      "Ġ:": 773,
      "Ġngay": 774,
      "ĠhÃłng": 775,
      "Ġthu": 776,
      "áº¥m": 777,
      "ĠTháº": 778,
      "Ġ!": 779,
      "ĠQu": 780,
      "ĠthÆ°Æ¡ng": 781,
      "Ġxa": 782,
      "ÃŃch": 783,
      "Ã£i": 784,
      "âĪ": 785,
      "âĪĴ": 786,
      "ĠbÆ°á»Ľc": 787,
      "Ã¡ch": 788,
      "¥ng": 789,
      "Ġsinh": 790,
      "ĠbÃłn": 791,
      "âĢ¦": 792,
      "Ġtiá»ģn": 793,
      "Ġvá»£": 794,
      "Ġcháº¡y": 795,
      "ĠcÆ¡": 796,
      "Ġnhá»Ľ": 797,
      "¥t": 798,
      "Ġhá»Ļ": 799,
      "Ġchá»©": 800,
      "Ġkia": 801,
      "Ġchá»§": 802,
      "Ġtin": 803,
      "Ġváº»": 804,
      "Ġmá»įi": 805,
      "ĠAnh": 806,
      "CÃ³": 807,
      "uá»ĳi": 808,
      "áº¹p": 809,
      "ĠÄĳo": 810,
      "Ġtiáº¿p": 811,
      "Ġtáº¡i": 812,
      "Ġbá»Ļ": 813,
      "ĠÃ¡o": 814,
      "Ġhiá»ĩn": 815,
      "Ġgá»įi": 816,
      "Má»Ļt": 817,
      "ĠÃ": 818,
      "Ġmáº¥t": 819,
      "ĠtÃªn": 820,
      "Ġláº½": 821,
      "áº£nh": 822,
      "ĠcÃ¢u": 823,
      "ĠnÆ¡i": 824,
      "áº±m": 825,
      "ĩnh": 826,
      "Ġtrá»Ŀi": 827,
      "Ġsá»£": 828,
      "Ã³ng": 829,
      "ĠPh": 830,
      "©t": 831,
      "ĠhÃ´m": 832,
      "Ġbáº¥t": 833,
      "Ġcá»ĳ": 834,
      "ħn": 835,
      "uá»ĳc": 836,
      "ĠÄĳáº¥t": 837,
      "Ġdo": 838,
      "ĠcÃ¢y": 839,
      "Ġcao": 840,
      "Ġchá»ĵng": 841,
      "á»ĳc": 842,
      "iáº¿m": 843,
      "ĠthÃª": 844,
      "Ġ(": 845,
      "Ãºi": 846,
      "áº£n": 847,
      "Th": 848,
      "ĠthÃŃch": 849,
      "ÃŃt": 850,
      "ĠlÃ£o": 851,
      "īnh": 852,
      "áº¥p": 853,
      "áº©n": 854,
      "á»įc": 855,
      "ĠdÃłi": 856,
      "Ġvá»ĭ": 857,
      "ĠÄĳá»ĳi": 858,
      "KhÃ´ng": 859,
      "ĠÄĳá»©a": 860,
      "ĠA": 861,
      "Ġchá»ĭu": 862,
      "iá»ĩm": 863,
      "uyá»ģn": 864,
      "ĠÄĳÃ´i": 865,
      "ĠÄĳáº¥y": 866,
      "Ġkhá»ıi": 867,
      "á»ĳt": 868,
      "ĠÄĳáº¡i": 869,
      "ĠÄĳÃ¡nh": 870,
      "ĠÄĳÃªm": 871,
      "Ġvui": 872,
      "ĠNh": 873,
      "Ġgáº§n": 874,
      "ĠchÃ¡u": 875,
      "Ã©t": 876,
      "įn": 877,
      "Nhá»": 878,
      "âĢĵ": 879,
      "NÃ³": 880,
      "Ġtháº±ng": 881,
      "Ġxem": 882,
      "iá»ĩp": 883,
      "Ġxu": 884,
      "oi": 885,
      "ĠÄĳáº¹p": 886,
      "ĠlÃ¢u": 887,
      "áº¡ng": 888,
      "áº£y": 889,
      "áº¡ch": 890,
      "ar": 891,
      "há»ī": 892,
      "ĠthÃªm": 893,
      "Ġnáº¿u": 894,
      "ĠphÃŃa": 895,
      "§n": 896,
      "ĠtÆ°á»Łng": 897,
      "Ġchá»Ĺ": 898,
      "Ġtá»«ng": 899,
      "ĠÄĳá»ķ": 900,
      ";.": 901,
      "Ġtáº¥t": 902,
      "ĭch": 903,
      "Ġgian": 904,
      "Ġbuá»ĵn": 905,
      "ĠhÃłnh": 906,
      "á»Ń": 907,
      "Ġtráº£": 908,
      "Ġthá»±c": 909,
      "ĠdÆ°á»Ľi": 910,
      "Ġquay": 911,
      "Ġnáº±m": 912,
      "ĠsÄ©": 913,
      "iá»ĥn": 914,
      "Ã´m": 915,
      "Ġngá»§": 916,
      "ĠgiÃł": 917,
      "ĠmÃły": 918,
      "ĠphÃº": 919,
      "ĠcáºŃu": 920,
      "áº¯p": 921,
      "ĠdÃ¢n": 922,
      "Ġcha": 923,
      "Ġxin": 924,
      "ĠtrÆ°á»Ŀng": 925,
      "NgÆ°á»Ŀi": 926,
      "á»įn": 927,
      "ĠquÃ¢n": 928,
      "Ġtuá»ķi": 929,
      "ĠluÃ´n": 930,
      "ĠNam": 931,
      "ĠCh": 932,
      "Ġmá»Ł": 933,
      "iá»ĥm": 934,
      "Ġcá»ķ": 935,
      "Ġhoa": 936,
      "ĠtÃŃnh": 937,
      "ĠrÃµ": 938,
      "BÃł": 939,
      "ĠcÃłng": 940,
      "ĠÄĳá»ĵ": 941,
      "ĠÄĳá»§": 942,
      "er": 943,
      "įc": 944,
      "ĠlÃ½": 945,
      "Ġmang": 946,
      "Ġkhu": 947,
      "Ãºt": 948,
      "Ãªng": 949,
      "uá»ĳt": 950,
      "áº£o": 951,
      "Ã©o": 952,
      "Ġtá»ĳi": 953,
      "Ġgiá»¯a": 954,
      "Ġthá»©c": 955,
      "Ġsang": 956,
      "Ġná»ķi": 957,
      "Ġtráº»": 958,
      "ĠÄĳau": 959,
      "Ġcháº¯c": 960,
      "ĠX": 961,
      "ĠthÃ¡ng": 962,
      "ĠÄĳáº§y": 963,
      "Ġ:-": 964,
      "âĢĿ.": 965,
      "á»įng": 966,
      "ĠmÃ¹": 967,
      "Ġláº¡": 968,
      "ĠtoÃłn": 969,
      "Ġtá»Ń": 970,
      "ĠbÃ¡c": 971,
      "ChÃº": 972,
      "ĠchÃºt": 973,
      "Nhá»¯ng": 974,
      "Ġmá»Ĺi": 975,
      "Trong": 976,
      "ĠthÆ¡": 977,
      "Ġláº·ng": 978,
      "Tá»": 979,
      "ĠhÆ¡i": 980,
      "iÃªng": 981,
      "Ġgiá»įng": 982,
      "ĠviÃªn": 983,
      "£n": 984,
      "£y": 985,
      "Ãºp": 986,
      "ĠÄĳÃ¬nh": 987,
      "Ġkáº»": 988,
      "ĠÄĳÃºng": 989,
      "ĠbÃ¬nh": 990,
      "ĠchÆ¡i": 991,
      "Ġká»ĥ": 992,
      "Ġthá»§": 993,
      "Ġcáº£nh": 994,
      "ĠkhÃ¡ch": 995,
      "Ġkinh": 996,
      "Ġtháº§n": 997,
      "ĠTÃ´i": 998,
      "ĠbÃ¢y": 999,
      "Æ°u": 1000,
      "á»Łi": 1001,
      "ĠdÃ¹": 1002,
      "Ä©nh": 1003,
      "Ġsá»©c": 1004,
      "Ġthá»ĭ": 1005,
      "ĠváºŃt": 1006,
      "Ńn": 1007,
      "ĠbÃ¡o": 1008,
      "á»ĳn": 1009,
      "âĢľ": 1010,
      "Ġxong": 1011,
      "Con": 1012,
      "ĠhÃ¡": 1013,
      "ĠÄĲá»": 1014,
      "Ġchá»£": 1015,
      "Ġru": 1016,
      "Ġchiáº¿n": 1017,
      "Ġkhá»ķ": 1018,
      "Ġchá»Ŀ": 1019,
      "Ġbáº£n": 1020,
      "Ġtrai": 1021,
      "Ĺng": 1022,
      "Ġmáº·c": 1023,
      "ĠViá»ĩt": 1024,
      "ĠvÄĥn": 1025,
      "¥p": 1026,
      "ĠphÃ¡t": 1027,
      "ĠGi": 1028,
      "ĠnghÄ©a": 1029,
      "uyáº¿t": 1030,
      "iáº¿ng": 1031,
      "VÃł": 1032,
      "ĠThá»": 1033,
      "Ġchu": 1034,
      "ĠĠĠĠĠĠĠĠ": 1035,
      "ĠMá»": 1036,
      "iá»ħn": 1037,
      "Ġgiáº£i": 1038,
      "Vá»": 1039,
      "Ġthanh": 1040,
      "ĠvÃłi": 1041,
      "Ġtrá»įng": 1042,
      "Ã¨n": 1043,
      "ĠdáºŃy": 1044,
      "Khi": 1045,
      "ĠÄĳá»Ļ": 1046,
      "Ġbá»įn": 1047,
      "ĠtiÃªn": 1048,
      "ĠvÃłng": 1049,
      "Ġgá»": 1050,
      "Ġnháº¹": 1051,
      "ĠÄĳá»«ng": 1052,
      "ĠdÃ¹ng": 1053,
      "ĠÄĳáº·t": 1054,
      "á»³": 1055,
      "ĠkhÃ³c": 1056,
      "±a": 1057,
      "iá»ĩng": 1058,
      "ĠgiÃ¡o": 1059,
      "ĠthÆ°": 1060,
      "Ġhá»Ļi": 1061,
      "Ġká»³": 1062,
      "ĠKh": 1063,
      "ĠmÃłu": 1064,
      "Ġquyáº¿t": 1065,
      "Ġtá»ĳt": 1066,
      "Náº¿u": 1067,
      "Ġtá»©c": 1068,
      "Ġcáº§u": 1069,
      "ĠsÆ°": 1070,
      "uyá»ĩt": 1071,
      "ĠbÃ³ng": 1072,
      "Ġgiá»Ľi": 1073,
      "ĠthÃº": 1074,
      "hÃ¬": 1075,
      "ĭp": 1076,
      "Ġpháº§n": 1077,
      "Ġtao": 1078,
      "Ġquen": 1079,
      "Ġquáº£": 1080,
      "Ġquanh": 1081,
      "Ġphá»ĳ": 1082,
      "á»ĳng": 1083,
      "Ġthay": 1084,
      "ĠÃł": 1085,
      "ĠsÃ¡t": 1086,
      "ĠmÃ¡y": 1087,
      "ĠtÃłi": 1088,
      "Ġviáº¿t": 1089,
      "ĠtÆ°": 1090,
      "Ġná»Ĺi": 1091,
      "ĠÃŃt": 1092,
      "ĠÃ¡nh": 1093,
      "Ġcuá»ĳi": 1094,
      "Ġchá»¯": 1095,
      "Ġtráº¯ng": 1096,
      "ĠkÃ©o": 1097,
      "Ġmáº¡nh": 1098,
      "ĠR": 1099,
      "Ġuá»ĳng": 1100,
      "Ġkiáº¿m": 1101,
      "ÄĲá»": 1102,
      "©p": 1103,
      "Ġláº¡nh": 1104,
      "Ġhá»ĵi": 1105,
      "£p": 1106,
      "Ġmiá»ĩng": 1107,
      "Ġquyá»": 1108,
      "Ġtháº§y": 1109,
      "ĠÆ¡i": 1110,
      "Ġthá»Ł": 1111,
      "¥i": 1112,
      "Ġlá»±c": 1113,
      "Ġbay": 1114,
      "Ġchiá»ģu": 1115,
      "Ġphá»¥": 1116,
      "Ġáº£nh": 1117,
      "ĠcÃ¡nh": 1118,
      "Ġvá»įng": 1119,
      "Ã³n": 1120,
      "ĠdÃ¡m": 1121,
      "ĠChÃ": 1122,
      "Ġchi": 1123,
      "Ġngá»Ŀ": 1124,
      "Ġbá»ĩnh": 1125,
      "ĠPháº": 1126,
      "Ġthuá»ĳc": 1127,
      "ĠtrÃ¡i": 1128,
      "ĠbÃłi": 1129,
      "ĠyÃªn": 1130,
      "Ġcáº§m": 1131,
      "ĠÄĳá»ķi": 1132,
      "ĠlÃ¡": 1133,
      "Ġmua": 1134,
      "ĠkÃªu": 1135,
      "Ġtranh": 1136,
      "Ġnhanh": 1137,
      "ĠgÃ£": 1138,
      "Ã¢ng": 1139,
      "ĠKhÃ´ng": 1140,
      "Ġvá»Ļi": 1141,
      "Æ°á»¡": 1142,
      "ĠgiÃºp": 1143,
      "ChÃºng": 1144,
      "Ġgiáº£": 1145,
      "Ġcoi": 1146,
      "NÃłng": 1147,
      "ĠghÃ": 1148,
      "ĩt": 1149,
      "áº¿p": 1150,
      "Ńm": 1151,
      "Ġ...": 1152,
      "ĠÄĳÃ¡ng": 1153,
      "ĠÄĳá»ı": 1154,
      "Ġkhiáº¿n": 1155,
      "Ġdá»ħ": 1156,
      "Ġnghi": 1157,
      "á»Ļn": 1158,
      "ĠgiÃ¡": 1159,
      "ĠhoÃłn": 1160,
      "Ãłm": 1161,
      "Ġtá»ķ": 1162,
      "ĠbÃ¡n": 1163,
      "ĠÄĳáº¡o": 1164,
      "Ġgiá»ĳng": 1165,
      "ĠmÆ°á»Ŀi": 1166,
      "Ġxuáº¥t": 1167,
      "ĠÄĳÃ¡m": 1168,
      "Sau": 1169,
      "Cháº": 1170,
      "ĠEm": 1171,
      "ĠrÆ°á»£": 1172,
      "ĠthÃ´ng": 1173,
      "ĠÄĳem": 1174,
      "ĠtáºŃp": 1175,
      "áº©y": 1176,
      "ĠquÃªn": 1177,
      "Rá»ĵi": 1178,
      "ĠtrÃ´ng": 1179,
      "Ġhoáº·c": 1180,
      "ĠÄĳen": 1181,
      "Ġtháº£": 1182,
      "Ġhá»£p": 1183,
      "Hai": 1184,
      "ĠtÃ³c": 1185,
      "ĠÄĳÃ¡p": 1186,
      "uá»": 1187,
      "Ġbuá»ķi": 1188,
      "ĠsÃ¡ch": 1189,
      "ĠláºŃp": 1190,
      "CÃ²n": 1191,
      "§y": 1192,
      "ĠmÃ£i": 1193,
      "Ġbiá»ĩt": 1194,
      "Ġcáº¡nh": 1195,
      "Ġtá»īnh": 1196,
      "Äĳ": 1197,
      "ĠÄĳiá»ĩn": 1198,
      "Ġxanh": 1199,
      "Ġchung": 1200,
      "Tháº¿": 1201,
      "Ġcá»¥": 1202,
      "Ġbiáº¿n": 1203,
      "Ã³i": 1204,
      "ĠÄĳá»įc": 1205,
      "á»ĭ": 1206,
      "Ġquáº§n": 1207,
      "ĠgiáºŃn": 1208,
      "Chá»ĭ": 1209,
      "Ã³m": 1210,
      "ĠQ": 1211,
      "ĠtÃ¡c": 1212,
      "Ġvai": 1213,
      "ĠcÄĥn": 1214,
      "iáº¿p": 1215,
      "Ġnghá»": 1216,
      "Ġdáº¡": 1217,
      "á»©": 1218,
      "Ġtá»Ļi": 1219,
      "Ġthiáº¿u": 1220,
      "Ġtá»¥c": 1221,
      "Ġan": 1222,
      "ĠtÆ°á»£ng": 1223,
      "Ġhá»ĵn": 1224,
      "ĠhÃ£y": 1225,
      "ĠgiÃ³": 1226,
      "ĠtrÃŃ": 1227,
      "ĠphÆ°Æ¡ng": 1228,
      "Ġphá»¥c": 1229,
      "Ľm": 1230,
      "ĠrÆ°á»£u": 1231,
      "Ã£y": 1232,
      "ĠâĢĵ": 1233,
      "Ġbá»Ĺng": 1234,
      "Ġtrang": 1235,
      "ĠgiÃ¡c": 1236,
      "ĠÄĳá»£i": 1237,
      "Ġbá»ĳn": 1238,
      "Ġtháº³ng": 1239,
      "al": 1240,
      "ĠmÆ°Æ¡i": 1241,
      "á»¯a": 1242,
      "ÃŃn": 1243,
      "³n": 1244,
      "Ġtrung": 1245,
      "Ġquyá»ģn": 1246,
      "Ġnghiá»ĩp": 1247,
      "ĠthÄĥm": 1248,
      "Ġkáº¿t": 1249,
      "Thá»": 1250,
      "ĠkhÃŃ": 1251,
      "ĠxÆ°a": 1252,
      "ĠMá»¹": 1253,
      "Ġvá»¥": 1254,
      "¢u": 1255,
      "ĠnhiÃªu": 1256,
      "ĠsÃ´ng": 1257,
      "Ġháº£": 1258,
      "ĠÄĳá»Ļi": 1259,
      "Ġliá»ģn": 1260,
      "ĠÄĳiá»ĥm": 1261,
      "ĠngÆ°Æ¡i": 1262,
      "ĠTrung": 1263,
      "?-": 1264,
      "á»Ŀi": 1265,
      "Ã³t": 1266,
      "ĠtrÃ²": 1267,
      "Ġtai": 1268,
      "Ġcháº·": 1269,
      "ĠÃ´m": 1270,
      "ĠlÆ°ng": 1271,
      "Ġtinh": 1272,
      "Ġo": 1273,
      "ĠY": 1274,
      "Ġthuá»Ļc": 1275,
      "ĠMinh": 1276,
      "Ġim": 1277,
      "ĠlÃłng": 1278,
      "ĠHoa": 1279,
      "Ġloáº¡i": 1280,
      "ĠHÃł": 1281,
      "áº©m": 1282,
      "Ġmai": 1283,
      "uÃ´i": 1284,
      "ĳt": 1285,
      "ĠliÃªn": 1286,
      "ĠcÆ¡m": 1287,
      "Ġtiáº¿n": 1288,
      "ĠmÆ°a": 1289,
      "CÃ¡i": 1290,
      "Chá»ī": 1291,
      "uyá»ĥn": 1292,
      "Ġlá»Ľp": 1293,
      "Ġdá»ĭ": 1294,
      "Ġháº¡nh": 1295,
      "Há»į": 1296,
      "Ġbá»Łi": 1297,
      "Ġsáº¯p": 1298,
      "ĠmÅ©": 1299,
      "Ġtrá»ĭ": 1300,
      "Ġchá»£t": 1301,
      "Ãłu": 1302,
      "ĠThÃ¡": 1303,
      "Æ°á»£t": 1304,
      "ĠtrÆ°á»Łng": 1305,
      "Ġsáº¯c": 1306,
      "Ġxo": 1307,
      "Ġca": 1308,
      "Ġgháº": 1309,
      "ĠmÆ¡": 1310,
      "áº¡p": 1311,
      "Ġtá»ı": 1312,
      "ChÃłng": 1313,
      "ĠvÃ²ng": 1314,
      "ĠxÃ¡c": 1315,
      "Ġháº³n": 1316,
      "Má»": 1317,
      "ĠÄĳÃ´ng": 1318,
      "ĠÄĳÆ¡n": 1319,
      "Ġtáº¥m": 1320,
      "ĠmÃª": 1321,
      "ĠPhÃ¡": 1322,
      "įt": 1323,
      "ĠcÅ©": 1324,
      "Ġná»Ńa": 1325,
      "uá»ķi": 1326,
      "ĠÄĳá»Ļc": 1327,
      "ĠThanh": 1328,
      "Ľt": 1329,
      "¹ng": 1330,
      "Tá»«": 1331,
      "ĠmÃ´i": 1332,
      "ĠriÃªng": 1333,
      "ĠhÃ²": 1334,
      "Ã¹i": 1335,
      "Ġáº¡": 1336,
      "Ġsuy": 1337,
      "Ġbáº¡c": 1338,
      "LÃºc": 1339,
      "ĠÃ¢m": 1340,
      "Ġcá»©u": 1341,
      "ĠhÃ´n": 1342,
      "áº·n": 1343,
      "Ġchá»Ľ": 1344,
      "ĠphÃºc": 1345,
      "Ġchá»«ng": 1346,
      "Ġlá»Ĺi": 1347,
      "ĠhÃ¡t": 1348,
      "ĠvÃ¹ng": 1349,
      "á»±": 1350,
      "Ġtháº§m": 1351,
      "Ġsuá»ĳt": 1352,
      "Ġnhá»Ŀ": 1353,
      "Ġbiá»ĥn": 1354,
      "Ã¹a": 1355,
      "iá»ģm": 1356,
      "©m": 1357,
      "Ġdáº«n": 1358,
      "ĠÆ¡n": 1359,
      "Ġngang": 1360,
      "Ġthi": 1361,
      "ĠChÃº": 1362,
      "ĠHoÃłng": 1363,
      "Ġnáº·ng": 1364,
      "ĠÃĲ": 1365,
      "ĠÄĳá»ĭa": 1366,
      "ĠphÃ¡p": 1367,
      "ĠBa": 1368,
      "Ġtáº¿": 1369,
      "Ġdáº§n": 1370,
      "uyá»ħn": 1371,
      "Ġná»Ļi": 1372,
      "or": 1373,
      "ĠnÃºi": 1374,
      "ĠquÃª": 1375,
      "ĠsÃ¢u": 1376,
      "Æ°á»Ŀn": 1377,
      "Ġdanh": 1378,
      "ĠLá»": 1379,
      "Ã²i": 1380,
      "ĠThiÃªn": 1381,
      "ĳc": 1382,
      "Ġháº§": 1383,
      "Ġbá»©c": 1384,
      "hÃ¢n": 1385,
      "ĠhÃ³": 1386,
      "ĠVÄĥn": 1387,
      "Ġgiáº¥y": 1388,
      "ĠhoÃłng": 1389,
      "ĠthiÃªn": 1390,
      "Ġdá»¥ng": 1391,
      "Ġphong": 1392,
      "áº¥c": 1393,
      "Ġmay": 1394,
      "ĠchÃ³": 1395,
      "uyáº¿n": 1396,
      "¥y": 1397,
      "ĠxÃ£": 1398,
      "Ġtiá»ĥu": 1399,
      "he": 1400,
      "Ġtáº¡o": 1401,
      "ĠNgá»įc": 1402,
      "Ġngáº¡c": 1403,
      "Ġhá»ģ": 1404,
      "Ńu": 1405,
      "Ġláº¯c": 1406,
      "Ġgháº¿": 1407,
      "ĠtáºŃn": 1408,
      "ĠBÃ¬nh": 1409,
      "Háº¯n": 1410,
      "Ġkiáº¿n": 1411,
      "Ã£n": 1412,
      "Ã£nh": 1413,
      "Ġhiá»ĩu": 1414,
      "Máº¹": 1415,
      "ĠPhong": 1416,
      "Ġminh": 1417,
      "Ġmá»Ŀi": 1418,
      "es": 1419,
      "ĠÄĳÃ¨n": 1420,
      "ĠcÆ¡n": 1421,
      "ĠphÃºt": 1422,
      "Ġbá»Ŀ": 1423,
      "Ã¡p": 1424,
      "Ġrá»«ng": 1425,
      "ĠtrÄĥm": 1426,
      "Ġlá»ħ": 1427,
      "Ġso": 1428,
      "ĠkhÃ´": 1429,
      "iá»ħ": 1430,
      "ĠÄĳoÃłn": 1431,
      "ĠMai": 1432,
      "Ġchá»©ng": 1433,
      "áºµ": 1434,
      "Ġmá»«ng": 1435,
      "VÃ¬": 1436,
      "Ġtuyá»ĩt": 1437,
      "¹n": 1438,
      "Ġquá»ĳc": 1439,
      "Ġthiáº¿t": 1440,
      "at": 1441,
      "Ġchá»©c": 1442,
      "ĠLan": 1443,
      "Ġláº¡c": 1444,
      "ĠquÃ¡n": 1445,
      "Ġtim": 1446,
      "Ġdiá»ĩn": 1447,
      "ĠhÆ°á»Ľng": 1448,
      "¯p": 1449,
      "uÃ¢n": 1450,
      "ĠSÆ¡n": 1451,
      ".T": 1452,
      "Ġmong": 1453,
      "Ġcháº·t": 1454,
      "Ġda": 1455,
      "ĠNháº": 1456,
      "Ġngoáº¡i": 1457,
      "ĠgáºŃt": 1458,
      "ĠmÃ¡u": 1459,
      "ĠnguyÃªn": 1460,
      "Ġchuyá»ĥn": 1461,
      "Ġcáº¥p": 1462,
      "Chá»": 1463,
      "ĠCÃ´": 1464,
      "ĠJ": 1465,
      "ĠrÆ¡i": 1466,
      "ĠÄĳÃ³ng": 1467,
      "Ġsáº£n": 1468,
      "ĠPháºŃt": 1469,
      "ĠThu": 1470,
      "ĠTÃ¢y": 1471,
      "Ġcháº¥t": 1472,
      "Ġnáº¯m": 1473,
      "Ġlá»Ńa": 1474,
      "Ġxáº£y": 1475,
      "Giá»": 1476,
      "Ġtháº¥t": 1477,
      "Ġsá»Ń": 1478,
      "Ġkhoáº£ng": 1479,
      "ĠAn": 1480,
      "Ġsá»Ľm": 1481,
      "ĠnÄĥng": 1482,
      "Ġrá»Ļng": 1483,
      "Ġban": 1484,
      "ĠmÃ¹a": 1485,
      "ĠmÃ¡i": 1486,
      "§i": 1487,
      "Ġgiao": 1488,
      "el": 1489,
      "Ġnghá»ĭ": 1490,
      "ĠÃĶng": 1491,
      "ĠgiÆ°á»Ŀng": 1492,
      "ĠngÃ´i": 1493,
      "Ġváº¥n": 1494,
      ":âĢĵ": 1495,
      "Ã©p": 1496,
      "ĠtÃ¹": 1497,
      "Gi": 1498,
      "ĠtÆ°á»Ľng": 1499,
      "háº£i": 1500,
      "ĠnÃ³ng": 1501,
      "Ġmu": 1502,
      "ĠsÃ¢n": 1503,
      "ĠtrÃ¬nh": 1504,
      "om": 1505,
      "ĠbáºŃt": 1506,
      "Ġnghá»ī": 1507,
      "Ġtuáº§n": 1508,
      "Ġlao": 1509,
      "ÃĲ": 1510,
      ".&": 1511,
      "ĠVÃ¢n": 1512,
      "ĠtrÃ¡ch": 1513,
      "Ġdiá»ħn": 1514,
      "ĠphÃ©p": 1515,
      "ĠLong": 1516,
      "Ġká»ĭp": 1517,
      "Ġmáº¡ng": 1518,
      "ĠthÃ¡i": 1519,
      "áº¡m": 1520,
      "Ã¨o": 1521,
      "Ã²a": 1522,
      "Ġmá»ī": 1523,
      "Ġlá»Ļ": 1524,
      "ĠdÃ²ng": 1525,
      "ĠÄĳáº·c": 1526,
      "Ġsai": 1527,
      "ĠmÅ©i": 1528,
      "Ġma": 1529,
      "ĠÄĳá»¡": 1530,
      "Ġdáº¡y": 1531,
      "Ho": 1532,
      "ĠCÃ³": 1533,
      "Ġly": 1534,
      "ĠtráºŃn": 1535,
      "Ġgiáº¿t": 1536,
      "ĠVÅ©": 1537,
      "Ġthá»ĭt": 1538,
      "Cáº£": 1539,
      "ĠhÆ°Æ¡ng": 1540,
      "ĠTháº¿": 1541,
      "ĠphÃ¢n": 1542,
      "Ġbá»¥ng": 1543,
      "Ġnháº£y": 1544,
      "ĠtiÃªu": 1545,
      "Ġhuy": 1546,
      "Ġla": 1547,
      "Ġphá»§": 1548,
      "Ġviá»ĩn": 1549,
      "Ġpháº£n": 1550,
      "ĠkhÄĥn": 1551,
      "ĠPhÃ¡p": 1552,
      "Ġcu": 1553,
      "Ġrá»Ŀi": 1554,
      "ĠCon": 1555,
      "Ġchia": 1556,
      "ĠdÃ¬": 1557,
      "Ġlá»£i": 1558,
      "ĠhÃ³a": 1559,
      "Ã©m": 1560,
      "ĠPhÆ°Æ¡ng": 1561,
      "ĠÄĲÃ´ng": 1562,
      "Ġyáº¿u": 1563,
      "et": 1564,
      "ĠnhÃ©": 1565,
      "Ġdá»±": 1566,
      "ĠbÃ¡nh": 1567,
      "ĠNguyá»ħn": 1568,
      "ĠthoÃ¡t": 1569,
      "Ã¡y": 1570,
      "Ġnháº¯c": 1571,
      "ĠniÃªn": 1572,
      "ĠnghÃ": 1573,
      "ĠU": 1574,
      "ĠÄĲáº¡i": 1575,
      "Æ°á»¡ng": 1576,
      "Ġká»¹": 1577,
      "?&": 1578,
      "Ġngá»±a": 1579,
      "Ġcháº¿": 1580,
      "Ġáº¥m": 1581,
      "ĠcÆ°á»Ľi": 1582,
      "ĠquÃ½": 1583,
      "BÃ¢y": 1584,
      "CÃ¡c": 1585,
      "Ġtha": 1586,
      "Ġtruyá»ģn": 1587,
      "is": 1588,
      "ĠâĪĴ": 1589,
      "Ġnháº¡c": 1590,
      "Ġhá»ĩ": 1591,
      "á»·": 1592,
      "ĠDÆ°Æ¡ng": 1593,
      "Ġsá»ķ": 1594,
      "ÄĲÃ³": 1595,
      ").": 1596,
      "Ġchá»ĳng": 1597,
      "ĠQuá»ĳc": 1598,
      "Ġu": 1599,
      "oan": 1600,
      "Ġvua": 1601,
      "Ġlá»ĭch": 1602,
      "¡m": 1603,
      "hÃ¬n": 1604,
      "ĠHÆ°Æ¡ng": 1605,
      "VáºŃy": 1606,
      "Ġsá»Ł": 1607,
      "ĠmáºŃt": 1608,
      "Ńnh": 1609,
      "Ãºa": 1610,
      "Ġbá»¯a": 1611,
      "ĠgiáºŃt": 1612,
      "ĠchÄĥm": 1613,
      "NgÃły": 1614,
      "Ġláº¯ng": 1615,
      "Ġmá»ĩt": 1616,
      "ĠvÆ°á»Ŀn": 1617,
      "ĠÄĳoáº¡n": 1618,
      "ĠÄĳÃ³n": 1619,
      "ıng": 1620,
      "Ġká»·": 1621,
      "Ġngu": 1622,
      "ĠHai": 1623,
      "Æ°á»Ľt": 1624,
      "Ġsay": 1625,
      "Ġlá»ĩ": 1626,
      "ĠThÃ¡i": 1627,
      "ĠhÃº": 1628,
      "©n": 1629,
      "Ġxá»": 1630,
      "ĠkÃŃnh": 1631,
      "Ġniá»ĩm": 1632,
      "Ġdá»¯": 1633,
      "Ġchim": 1634,
      "ĠtÃŃ": 1635,
      "£o": 1636,
      "Ġxáº¥u": 1637,
      "Ġcuá»ĳn": 1638,
      "ĠháºŃu": 1639,
      "áº±n": 1640,
      "ĠthÃ¹": 1641,
      "ĠbÃŃ": 1642,
      "áº«u": 1643,
      "Ġlá»ĩnh": 1644,
      "ĠnuÃ´i": 1645,
      "áºµn": 1646,
      "ĠTá»": 1647,
      "Ġhá»ĵng": 1648,
      "¨o": 1649,
      "Ġphu": 1650,
      "Ġháº¡i": 1651,
      "ĠtÃłu": 1652,
      "Ġlinh": 1653,
      "á»ķng": 1654,
      "Ġcung": 1655,
      "Ġnáº§y": 1656,
      "Ã£ng": 1657,
      "Ã©n": 1658,
      "ĠmÃ³n": 1659,
      "ĠtÆ°Æ¡ng": 1660,
      ";&": 1661,
      "Ġchá»įn": 1662,
      "ĠmÃ¹i": 1663,
      "Ġmá»īm": 1664,
      "ĠtrÃ¡nh": 1665,
      "ĳn": 1666,
      "Ġtan": 1667,
      "ĠvÃµ": 1668,
      "ĠxÃºc": 1669,
      "Ġtá»Ŀ": 1670,
      "ĠchÃ¹": 1671,
      "ĠlÃŃnh": 1672,
      "ĠPhi": 1673,
      "ĠngÃ£": 1674,
      "ĠÄĳá»ĩ": 1675,
      "¥n": 1676,
      "¢m": 1677,
      "ĠTiá»ĥu": 1678,
      "Ġvang": 1679,
      "Ġbinh": 1680,
      "Ġkáº¿": 1681,
      "ĠHá»ĵng": 1682,
      "ĠcÃºi": 1683,
      "Ġngá»įn": 1684,
      "Ġcáº¥t": 1685,
      "Ġthoáº¡i": 1686,
      "§ng": 1687,
      "Ba": 1688,
      "Ġláº§m": 1689,
      "Ġthá»Ń": 1690,
      "Ãµi": 1691,
      "Ġtuy": 1692,
      "il": 1693,
      "Ġvá»ĳn": 1694,
      "ĠLinh": 1695,
      "NhÆ°": 1696,
      "ĠÄĳuá»ķi": 1697,
      "Ġdáº¥u": 1698,
      "ĠsÃ¡u": 1699,
      "Ġnáº¯ng": 1700,
      "NÃ³i": 1701,
      "Ľn": 1702,
      "ĠchÃło": 1703,
      "ĠdÃłnh": 1704,
      "ĠphÃ³ng": 1705,
      ".âĢĿ": 1706,
      "Ġháº§u": 1707,
      "Ġrun": 1708,
      "ĠtÃºi": 1709,
      "Ġcháº¥p": 1710,
      "Ġmá»ĵ": 1711,
      "Ġcáº·p": 1712,
      "ĠthuáºŃt": 1713,
      "ĠkÃ½": 1714,
      "ĠtÃłn": 1715,
      "ĠÄĳáº¥u": 1716,
      "Ġhá»ķ": 1717,
      "ĠPhá»": 1718,
      "ĠdÃ¢y": 1719,
      "ĠrÃºt": 1720,
      "Łi": 1721,
      "ĠHáº£i": 1722,
      "Ġcá»ı": 1723,
      "áº«y": 1724,
      "Ġrá»ĳi": 1725,
      "ĠKim": 1726,
      "ĠgÃ¢y": 1727,
      "ĠtÆ°Æ¡i": 1728,
      "Ġláº«n": 1729,
      "Ġkháº¯p": 1730,
      "ĠTÆ°": 1731,
      "ĠtÃŃch": 1732,
      "ĠchÃ¬": 1733,
      "ĠdÃ¡ng": 1734,
      "Ġngá»±c": 1735,
      "Ġbiá»ĥu": 1736,
      "Ġsáºµn": 1737,
      "á»ŀ": 1738,
      "Ġlá»ĳi": 1739,
      "Ġkháº½": 1740,
      "ÃŃu": 1741,
      "Ġthá»Ŀ": 1742,
      "ĠxÃ³m": 1743,
      "ĠtÆ°á»Ŀng": 1744,
      "ĠNguyÃªn": 1745,
      "ĠlÆ°á»£ng": 1746,
      "Ä©a": 1747,
      "áºŃm": 1748,
      "Ġdá»«ng": 1749,
      "ĠÃ¡c": 1750,
      "ĠBáº¯c": 1751,
      "ĠNhÆ°ng": 1752,
      "ĠÆ°á»Ľc": 1753,
      "ĠtrÃ²n": 1754,
      "ĠChÃ¢u": 1755,
      "ĠÄĳáº©y": 1756,
      "ĠkhuÃ´n": 1757,
      "Ġthá»ĳng": 1758,
      "Ġthuyá»ģn": 1759,
      "LÃ£o": 1760,
      "ĠrÃłng": 1761,
      "ĠtÄ©nh": 1762,
      "Tiáº¿ng": 1763,
      "Ġváº¯ng": 1764,
      "ĠgÆ°Æ¡ng": 1765,
      "Ph": 1766,
      "ĠluáºŃn": 1767,
      "Ġvá»ĩ": 1768,
      "uáº¥n": 1769,
      "ĠcÃł": 1770,
      "ĠSao": 1771,
      "Ġhy": 1772,
      "ĠÄĳoÃ¡n": 1773,
      "Ġniá»ģm": 1774,
      "tr": 1775,
      "ĠI": 1776,
      "âĢĿ,": 1777,
      "as": 1778,
      "ĠngÃłn": 1779,
      "hÃ¡nh": 1780,
      "ĠlÃłnh": 1781,
      "ĠÄĳiÃªn": 1782,
      "Ġthá»ķ": 1783,
      "Ġcháº¯n": 1784,
      "MÃł": 1785,
      "Ġnhiá»ĩm": 1786,
      "Kh": 1787,
      "áº«m": 1788,
      ";,": 1789,
      "ĠnghiÃªm": 1790,
      "Ġdu": 1791,
      "Ġphi": 1792,
      "Ġgiáº¥c": 1793,
      "ĠhÃ¨": 1794,
      "ĠTráº§n": 1795,
      "Ġche": 1796,
      "ĠcháºŃm": 1797,
      "ĠQuÃ¢n": 1798,
      "ĠmÃ´n": 1799,
      "Ġdá»ĭu": 1800,
      "ĠChi": 1801,
      "ĠpháºŃn": 1802,
      "Cháº³ng": 1803,
      "Sao": 1804,
      "ĠÄĳáºŃp": 1805,
      "ĠdÃłng": 1806,
      "Ġtráº§m": 1807,
      "Ġnghá»ģ": 1808,
      "Ġcá»±c": 1809,
      "Ġcáº¯t": 1810,
      "ĠlÆ°u": 1811,
      "ĠtÄĥng": 1812,
      "¥m": 1813,
      "£t": 1814,
      "Ġbuá»Ļc": 1815,
      "Ġngá»«ng": 1816,
      "Ġbáº£y": 1817,
      "ĠnÃ©t": 1818,
      "Ġná»¥": 1819,
      "ĠlÃ¹ng": 1820,
      "ĠÄĲá»©c": 1821,
      "Ġtung": 1822,
      "Æ°á»¡i": 1823,
      "Ġchuáº©n": 1824,
      "ĠthÆ°á»£ng": 1825,
      "le": 1826,
      "CÅ©ng": 1827,
      "ÄĲáº¿n": 1828,
      "ĠLÃ½": 1829,
      "ChÃ": 1830,
      "áº£m": 1831,
      "á»³nh": 1832,
      "Ġmá»¥c": 1833,
      "HÃ´m": 1834,
      "Ġthang": 1835,
      "Tuy": 1836,
      "¯u": 1837,
      "Ġngáº¡i": 1838,
      "ĠKá»³": 1839,
      "ĠÄĳÃ²i": 1840,
      "Ġbá»ķ": 1841,
      "Ġdá»±ng": 1842,
      "Ġtham": 1843,
      "ĠlÃ£nh": 1844,
      "Ã¡u": 1845,
      "ĠTá»Ń": 1846,
      "ĠtrÃ´i": 1847,
      "ĠÄĳá»Ļt": 1848,
      "Ġthuyáº¿t": 1849,
      "ĠÄĳÃłnh": 1850,
      "Ġthoáº£ng": 1851,
      "ĠbÄĥng": 1852,
      "ĠÄĳáº£o": 1853,
      "**": 1854,
      "Ġtrá»ĳng": 1855,
      "ĠngÃłi": 1856,
      ":âĪĴ": 1857,
      "ĠLÃ¢m": 1858,
      "Ġmiá»ģn": 1859,
      "TháºŃt": 1860,
      "Ġdá»©t": 1861,
      "Ġngáº¯n": 1862,
      "ĠbÃ¨": 1863,
      "Ġmáº¯c": 1864,
      "Ġtiáº¿t": 1865,
      "ĠkÃŃn": 1866,
      "TrÆ°á»Ľc": 1867,
      "ĠCháº": 1868,
      "ĠÃ¡p": 1869,
      "Ġchá»¥c": 1870,
      "Ġnghá»ĩ": 1871,
      "ĠO": 1872,
      "Ġxá»Ń": 1873,
      "ĠLiÃªn": 1874,
      "Pháº£i": 1875,
      "ĠÃĤ": 1876,
      "Ńp": 1877,
      "Ġtháº¯ng": 1878,
      "Ġsong": 1879,
      "Tháº±ng": 1880,
      "hÃ¡u": 1881,
      "ic": 1882,
      "ĠtÃ´n": 1883,
      "Ġtráº¡ng": 1884,
      "--": 1885,
      "ĠBÃł": 1886,
      "Ġmá»Ŀ": 1887,
      "ĠhÃ²a": 1888,
      "Táº¡i": 1889,
      "Ġtiá»ĩn": 1890,
      "ĠthÃ¨": 1891,
      "Ġkháº¯c": 1892,
      "ĠlÃ¡t": 1893,
      "Ġduy": 1894,
      "ĠxÃ©t": 1895,
      "Ġdung": 1896,
      "Ġvi": 1897,
      "ĠÄĳÃ¹a": 1898,
      "ĠvÆ°Æ¡ng": 1899,
      "Ġbáº¯n": 1900,
      "Ġcá»Ń": 1901,
      "ĠsÃºng": 1902,
      "Ġdi": 1903,
      "Ġmá»ĳi": 1904,
      "ĠhÆ°á»Łng": 1905,
      "ĠchÄĥng": 1906,
      "ĠgÃł": 1907,
      "oÃłn": 1908,
      "Ġxáº¿p": 1909,
      "ĠbÃły": 1910,
      "ĠhÃºt": 1911,
      "Ġhá»¯u": 1912,
      ".B": 1913,
      "Ġnáº¡n": 1914,
      "Ġbáº¿p": 1915,
      "ĠlÆ°Æ¡ng": 1916,
      "Ġghi": 1917,
      "Ġnhá»ī": 1918,
      "ĠtrÄĥng": 1919,
      "ĠsÆ°á»Ľng": 1920,
      "Ġtá»¥i": 1921,
      "á»¥": 1922,
      "ĠÃ¡i": 1923,
      "Ta": 1924,
      "ĠbÃ³": 1925,
      "Ġthá»«a": 1926,
      "ĠvÅ©": 1927,
      "ĠÄĳá»©c": 1928,
      "Ã¬a": 1929,
      "áº³ng": 1930,
      "ĠVÆ°Æ¡ng": 1931,
      "Ġváº¿t": 1932,
      "ĠngÃ³n": 1933,
      "Ġtráº§n": 1934,
      "ĠthÃ¨m": 1935,
      "),": 1936,
      "Ġngon": 1937,
      ";t": 1938,
      "!&": 1939,
      "ĠMáº¹": 1940,
      "ĠrÄĥng": 1941,
      "ĠhÃło": 1942,
      "ĠngÆ°á»£c": 1943,
      "ĠsÆ¡": 1944,
      "un": 1945,
      "ĵn": 1946,
      "Ġcá»Ļng": 1947,
      "ĠnÆ°Æ¡ng": 1948,
      "¯t": 1949,
      "Ġmi": 1950,
      ";ng": 1951,
      "ĠthoÃ¡ng": 1952,
      "Ġpháº©m": 1953,
      "ĠLÃª": 1954,
      ".ÄĲ": 1955,
      "Ġruá»Ļt": 1956,
      "Ġtiáº¿c": 1957,
      "ĠQuang": 1958,
      "ĠgÃ³c": 1959,
      "Ġkiá»ĥu": 1960,
      "it": 1961,
      "Ġcháº£y": 1962,
      "á»įt": 1963,
      "ol": 1964,
      "hÃ´n": 1965,
      "á»Ńi": 1966,
      "ĠcÃ¡o": 1967,
      "ĠghÃ©t": 1968,
      "ĠCÃ´ng": 1969,
      "ĠÄĳáº¿": 1970,
      "ĠChá»": 1971,
      "ĠTÃ¢m": 1972,
      ".L": 1973,
      "ĠnháºŃp": 1974,
      "ĠnghÃ¨o": 1975,
      "ĠÆ°": 1976,
      "Ġváº½": 1977,
      "ĠDáº¡": 1978,
      "ĠPhÃº": 1979,
      "ĠChÃºa": 1980,
      "ĠphÃª": 1981,
      "Ġkhai": 1982,
      "Ġgáº¯ng": 1983,
      "ĠbáºŃn": 1984,
      "ģnh": 1985,
      "Ġdá»ĭch": 1986,
      "Ġmáº£nh": 1987,
      "ĠthÃºc": 1988,
      "Ġlang": 1989,
      "Ġtáº£": 1990,
      "ĠngÄĥn": 1991,
      "ĠmÃ¡t": 1992,
      "ĠbÃ²": 1993,
      "ģm": 1994,
      "Ġná»Ł": 1995,
      "Ġcá»ķng": 1996,
      "Ġtá»Ļc": 1997,
      "Ġlai": 1998,
      "ĠlÅ©": 1999,
      "ĠchÃ¡n": 2000,
      "ĠháºŃn": 2001,
      "ĠluáºŃt": 2002,
      "ĠxÃ¢y": 2003,
      "Ġhoang": 2004,
      "Táº¥t": 2005,
      "Ġhiá»ĥm": 2006,
      "ĠbuÃ´ng": 2007,
      "Ġkháº£": 2008,
      "ĠNga": 2009,
      "ĠBáº£o": 2010,
      "Ġbáº§u": 2011,
      "Ã¹m": 2012,
      "ĠvÆ°á»£t": 2013,
      "Nghe": 2014,
      "Ġgá»Ńi": 2015,
      "Ġsá»Ńa": 2016,
      "Ai": 2017,
      "Ġcá»Ŀ": 2018,
      "ĠâĢ¦": 2019,
      "uá»ĩ": 2020,
      "Ġliá»ĩu": 2021,
      "ĠSÃłi": 2022,
      ";i": 2023,
      "ĠchÃ¹a": 2024,
      "ĠF": 2025,
      "Ġchiáº¿u": 2026,
      "ĠtÃ¡m": 2027,
      "ĠThÃłnh": 2028,
      "ĠhÃ£i": 2029,
      "ĠVáºŃy": 2030,
      "Ġbá»¥i": 2031,
      "ĠÃ¡n": 2032,
      "TrÃªn": 2033,
      "ĠÄĳÃ³i": 2034,
      "ĠphÃ¡i": 2035,
      "Ġpháº¡m": 2036,
      "Cho": 2037,
      "os": 2038,
      "ĠbÃ´ng": 2039,
      "©o": 2040,
      ";n": 2041,
      "ur": 2042,
      "ĠNhÆ°": 2043,
      "ĠthÆ°a": 2044,
      "Ġvá»¡": 2045,
      ";c": 2046,
      "Ġtrá»ĳn": 2047,
      "Má»Ĺi": 2048,
      "ĭnh": 2049,
      "Bá»": 2050,
      "Ġhoáº£ng": 2051,
      "ĠgiÃ¢y": 2052,
      "ĠÄĳá»ĭch": 2053,
      "Ġhiá»ģn": 2054,
      "Ġgá»Ĺ": 2055,
      "Ġtháº¥p": 2056,
      "Ġdáº§u": 2057,
      "ĠNghi": 2058,
      "Ġngáº¯m": 2059,
      "ĠThÃ´i": 2060,
      "?âĢĿ": 2061,
      "ĠtÃ¡n": 2062,
      "....": 2063,
      "Ġkhá»ı": 2064,
      "Ġkiá»ĩn": 2065,
      "ÄĲá»ĥ": 2066,
      "Ġchá»Ł": 2067,
      "oa": 2068,
      "Tháº¥y": 2069,
      "Ġhá»©a": 2070,
      "ĠsÃ³ng": 2071,
      "iá»ħu": 2072,
      "Ġnháº¡t": 2073,
      "ĠXuÃ¢n": 2074,
      "Ġá»©ng": 2075,
      "Ġnam": 2076,
      "Ġxinh": 2077,
      "ĠVá»": 2078,
      "ĠquÃ¡i": 2079,
      "Ġháº¹n": 2080,
      "NhÃł": 2081,
      "ĠchÃŃn": 2082,
      "Ġháº¡n": 2083,
      "Ġtui": 2084,
      "ĠtrÆ°a": 2085,
      "Ġhá»Ļp": 2086,
      "Ġmá»©c": 2087,
      "us": 2088,
      "Ġgá»ĳc": 2089,
      "Ġnho": 2090,
      "Ġhoáº¡t": 2091,
      "Ġbá»ĳi": 2092,
      "ĠgiÃłu": 2093,
      "ĠhÃ¹ng": 2094,
      "ĠGia": 2095,
      "ĠÄĳá»±ng": 2096,
      "NhÃ¬n": 2097,
      "ie": 2098,
      "Ġtáº¯m": 2099,
      "ĠchÃºa": 2100,
      "Ġnghiá»ĩm": 2101,
      "ĠthÃ³": 2102,
      "Máº¥y": 2103,
      "ĠĠĠ": 2104,
      "Ġmiáº¿ng": 2105,
      "ĠÃ³c": 2106,
      "Ġmá»Ļng": 2107,
      "Trá»Ŀi": 2108,
      "áº§ng": 2109,
      "Ġdáº¡i": 2110,
      "Nháº": 2111,
      "Ġcháº£": 2112,
      "Ġnguyá»ĩn": 2113,
      "ĠnÃ´ng": 2114,
      "CáºŃu": 2115,
      "Ġdá»ĭp": 2116,
      "Ġnáº¥u": 2117,
      "ĠhoÃłi": 2118,
      "Ġgiáº¥u": 2119,
      "Ġná»ģn": 2120,
      "Ġtráº¡i": 2121,
      "-t": 2122,
      "Má»įi": 2123,
      "ĠGiang": 2124,
      ".TÃ´i": 2125,
      "Ġnguy": 2126,
      "Ġhuynh": 2127,
      "ĠÄĳÃło": 2128,
      "Ġmau": 2129,
      "ĠNá»Ļi": 2130,
      "ThÃ´i": 2131,
      "ĠNáº¿u": 2132,
      "Vá»«a": 2133,
      "ĠÄĳÆ°Æ¡ng": 2134,
      "Ġsung": 2135,
      "Ġkhoa": 2136,
      "ĠThá»§y": 2137,
      "Æ°á»Ľp": 2138,
      "ĠlÃ¡i": 2139,
      "Ġtráº£i": 2140,
      "ĠmÃ¢y": 2141,
      "Ġcan": 2142,
      "Sá»±": 2143,
      "Ġphiá»ģn": 2144,
      "ĠMa": 2145,
      "ĠUy": 2146,
      "ĠE": 2147,
      "Ġliá»ĩt": 2148,
      "¡ch": 2149,
      "Ġtra": 2150,
      "ĠtoÃ¡n": 2151,
      "ĠHáº¡nh": 2152,
      "Ġtáº§m": 2153,
      "ĠbÃ£i": 2154,
      "Ġcáº£i": 2155,
      "ĠÄĳáº¡p": 2156,
      "Ġcá»©ng": 2157,
      "Ġtrá»«": 2158,
      "Ġáº©n": 2159,
      "Ġtáº¯t": 2160,
      "ĠngáºŃp": 2161,
      "ĠNhá»": 2162,
      "ĠChá»ĭ": 2163,
      "ĠBáº¡ch": 2164,
      "Ġnháº«n": 2165,
      "ĠghÃª": 2166,
      "Ġmá»ıi": 2167,
      "ĠnÃ£y": 2168,
      "ĠÃŃch": 2169,
      "iá»ħm": 2170,
      "NÄĥm": 2171,
      "ĠkÃŃch": 2172,
      "ĠdÆ°Æ¡ng": 2173,
      "ĠnháºŃt": 2174,
      "ĠPhÃ": 2175,
      "ĠtrÃł": 2176,
      "ĠváºŃn": 2177,
      "Ġgiá»ıi": 2178,
      "Ġvá»±c": 2179,
      "ĠÄĳiá»ĩu": 2180,
      "Ġá»ķ": 2181,
      ".H": 2182,
      "ĠÄĳá»ĳc": 2183,
      "Ġngá»įt": 2184,
      "Ġty": 2185,
      "Ġxá»©": 2186,
      "ĠngÃ³": 2187,
      "ĠDung": 2188,
      "ĠdÆ°á»Ŀng": 2189,
      "Ġdá»įn": 2190,
      "Ġthan": 2191,
      "Ġkhá»ıe": 2192,
      "Cháº¯c": 2193,
      "Ġbá»±c": 2194,
      "Ġsáº¡ch": 2195,
      "ĠÄĳÃŃch": 2196,
      "ĠNháºŃt": 2197,
      "ıa": 2198,
      "Ġná»į": 2199,
      "Ġnháº¯m": 2200,
      "Æ°á»£n": 2201,
      "ĠtháºŃn": 2202,
      "ĠNhÃ¢n": 2203,
      "ĠÄĳÃ¢m": 2204,
      "ĠNgÆ°á»Ŀi": 2205,
      "ĠbÃ¨n": 2206,
      ".C": 2207,
      "ĠgiÃ¡m": 2208,
      "li": 2209,
      "ĠkhÃ³i": 2210,
      "Ġkim": 2211,
      "Ġcanh": 2212,
      "ĠkhÃº": 2213,
      "Ġlui": 2214,
      "Ġcháº¡m": 2215,
      "Ġchuyáº¿n": 2216,
      "ĠGÃ²n": 2217,
      "Ġloáº¡n": 2218,
      "Ġvá»Ĺ": 2219,
      "ĠchuyÃªn": 2220,
      "ĠlÃ´i": 2221,
      "ĠÄĳáº±ng": 2222,
      "ÄĲÃ£": 2223,
      "ĠHuy": 2224,
      "ĠhÃ©t": 2225,
      "ĠlÄĥn": 2226,
      "Ġchá»ĳi": 2227,
      "Ġtáº·ng": 2228,
      "ĠsÃ³c": 2229,
      "ra": 2230,
      "Ã²m": 2231,
      "ĠthÆ¡m": 2232,
      "ĠÃ¢n": 2233,
      "á»µ": 2234,
      "á»ĭnh": 2235,
      "GÃ£": 2236,
      "Ġgiáº£n": 2237,
      "ĠduyÃªn": 2238,
      "ĠcÆ°": 2239,
      "LÃłm": 2240,
      "Ġnhá»ĭ": 2241,
      "Ġkhuy": 2242,
      "Ġtrao": 2243,
      "ĠmÃ²": 2244,
      "MÃ¬nh": 2245,
      "ĠHá»ĵ": 2246,
      "ĠgÃ¡c": 2247,
      "Ġná»ķ": 2248,
      "ĠtÃ¡": 2249,
      "Ġthua": 2250,
      "ĠW": 2251,
      "©u": 2252,
      "á»ĵm": 2253,
      "ĠDu": 2254,
      "ĠÃ´": 2255,
      "ĠlÃ´ng": 2256,
      "Ġtháº£m": 2257,
      "ĠbÃ¡t": 2258,
      ".âĢĵ": 2259,
      "Ġtriá»ĥn": 2260,
      "ChÃŃnh": 2261,
      "á»Ļm": 2262,
      "ĠNÄĥm": 2263,
      "ÄĲÃºng": 2264,
      "ĠchÃ¡y": 2265,
      "áº¹o": 2266,
      "Ġsá»ĳt": 2267,
      "Ġdao": 2268,
      "ĠtrÃłn": 2269,
      "Ġrá»¡": 2270,
      "ĠÃło": 2271,
      "ĠÄĳÃ´": 2272,
      "Ġsá»£i": 2273,
      "Ġthiá»ĩt": 2274,
      "Ġchiáº¿m": 2275,
      "Ġtá»Ľ": 2276,
      "ĠlÆ°á»¡i": 2277,
      "Ńng": 2278,
      "ĠtÃ¡i": 2279,
      "ĠkhÃºc": 2280,
      "ĠÄĳáº£m": 2281,
      "Cá»©": 2282,
      "Ġmá»Ļ": 2283,
      "Ġlá»¥c": 2284,
      "ĠxÆ°Æ¡ng": 2285,
      "áº©u": 2286,
      "Ġgiá»įt": 2287,
      "ĠTháº£o": 2288,
      "re": 2289,
      "Ġmáº«u": 2290,
      "ĠnhÃłng": 2291,
      "ĠmÃłn": 2292,
      "ĠkÃ©m": 2293,
      "áºŃc": 2294,
      "hÃºy": 2295,
      "Ġtáº¥n": 2296,
      "ĠhÃłi": 2297,
      "Ġthiá»ĩn": 2298,
      "ĠThÃ": 2299,
      "Ġthá»ķi": 2300,
      "Láº§n": 2301,
      "Ġdá»įc": 2302,
      "DÃ¹": 2303,
      "ĠHáº¡": 2304,
      "ĠphÃ³": 2305,
      "ĠÄĳa": 2306,
      "Ġdá»¥c": 2307,
      "ĠÄĳeo": 2308,
      "Ġtáº¡m": 2309,
      "ĠchÃ©n": 2310,
      "Ġcáº©n": 2311,
      "âĢĻ": 2312,
      "Ġngháº": 2313,
      "ĠTáº¡i": 2314,
      "Ġdáº·n": 2315,
      "ÄĲÃ´i": 2316,
      "ĠhÃ´i": 2317,
      "Ãºm": 2318,
      "á»ĥ": 2319,
      "Ġlá»Ļn": 2320,
      "Ńi": 2321,
      "Ġmá»¥": 2322,
      "ÄĲÃ¢y": 2323,
      "Ġkhen": 2324,
      "ĠHu": 2325,
      "ĠÄĳá»ĳt": 2326,
      "Ġtá»§": 2327,
      "ĠÆ°á»Ľt": 2328,
      "ĠhÃ£": 2329,
      "Ġtháº£n": 2330,
      "Ġsu": 2331,
      "ĠngÆ¡": 2332,
      "ĠdÃ¢u": 2333,
      "Ġxung": 2334,
      "Ġgiai": 2335,
      "ĠHá»": 2336,
      "ĠTháº§n": 2337,
      "Ġhá»Ł": 2338,
      "áº¹t": 2339,
      "Ġhá»įa": 2340,
      ".V": 2341,
      "Ġgáº¥p": 2342,
      "Ġhá»ĳi": 2343,
      "ĠbáºŃc": 2344,
      "ĠTuáº¥n": 2345,
      "iÃªm": 2346,
      "Vá»Ľi": 2347,
      "oÃłi": 2348,
      "ĠsÆ¡n": 2349,
      "ĠÃ¡m": 2350,
      "ĠTrÆ°á»Ŀng": 2351,
      "Ġsa": 2352,
      "ĠÄĳáº¡n": 2353,
      "ĠÄĳá»Ľn": 2354,
      "Ġquáº£n": 2355,
      "ĠÄĳáº¡t": 2356,
      "ĠnhÃ³m": 2357,
      "ĠÃªm": 2358,
      "ĠKhÃ¡nh": 2359,
      "ĠdÄ©": 2360,
      "Ġdá»ĳi": 2361,
      "ĠÄĳáºŃu": 2362,
      "ĠchiÃªu": 2363,
      "Ġthá»īnh": 2364,
      "Ġ?-": 2365,
      "BÃ¡c": 2366,
      "ĠVÄ©nh": 2367,
      "Ġ*": 2368,
      "ĠchÆ°Æ¡ng": 2369,
      "Ġsáº¯t": 2370,
      "ĠTrang": 2371,
      "ĠHá»Ļi": 2372,
      "ĠbiÃªn": 2373,
      "ĠCÃ¡i": 2374,
      "Ġrá»±c": 2375,
      "ĠcÆ°á»Ľp": 2376,
      "ĠnÃ¡t": 2377,
      "Ġkhá»§ng": 2378,
      "Ġchá»¯a": 2379,
      "ĠghÃ©": 2380,
      "ĠHÃ¹ng": 2381,
      "Ġtrá»±c": 2382,
      "Ġbi": 2383,
      "ĠÄĳÃłi": 2384,
      "Ġchá»Ľp": 2385,
      "Ġáº": 2386,
      "Ġin": 2387,
      "Ġgá»ĳi": 2388,
      "ĠQuá»³nh": 2389,
      "Vá»ģ": 2390,
      "la": 2391,
      "ĠTiÃªn": 2392,
      "Lá»": 2393,
      "ĠThÆ°a": 2394,
      "Ŀn": 2395,
      "Ġco": 2396,
      "Ġngá»¯": 2397,
      "ĠVi": 2398,
      "ri": 2399,
      "ĠTrá»Ŀi": 2400,
      "Ġtá»±a": 2401,
      "ĠtÃŃn": 2402,
      "Ġthá»ĳt": 2403,
      "Ġváº£i": 2404,
      "ĠÃ¢u": 2405,
      "Ġsanh": 2406,
      "Ġcá»¥c": 2407,
      "ĠnghiÃªng": 2408,
      "Ġtráº¥n": 2409,
      "ĠMar": 2410,
      "ĠvÃ£": 2411,
      "Ġháº¡t": 2412,
      "th": 2413,
      "Ġhá»įp": 2414,
      "Ġá»ĳng": 2415,
      "ĠMá»Ļt": 2416,
      ".M": 2417,
      "Ãºn": 2418,
      "Ġleo": 2419,
      "Ã³a": 2420,
      "ĠcÄĥng": 2421,
      "Ġthá»§y": 2422,
      "Ġthá»£": 2423,
      "Ngay": 2424,
      "Ġmá»ģm": 2425,
      "ĠÃģ": 2426,
      "ĠchÃ³ng": 2427,
      "Há»": 2428,
      "Ãªnh": 2429,
      "ĠhoÃ¡": 2430,
      "ĠcÃ£i": 2431,
      "ĠTÃ¢n": 2432,
      "Ġvuá»ĳt": 2433,
      "Ġmáº¿n": 2434,
      "ĠThÆ°á»£ng": 2435,
      "ĠlÆ°á»£t": 2436,
      "Ġpha": 2437,
      "Ġnon": 2438,
      "ĠloÃłi": 2439,
      "ĠcÃµi": 2440,
      "Ġluyá»ĩn": 2441,
      "ĠcÃ¡t": 2442,
      "ĠChu": 2443,
      "Ġkháº©u": 2444,
      "HÃ£y": 2445,
      "Ġtreo": 2446,
      "ÃĶi": 2447,
      "ĠthÃ¡nh": 2448,
      "ĠTa": 2449,
      "Ġráº¯n": 2450,
      "Tao": 2451,
      "Ġmá»ĩnh": 2452,
      "Ã½t": 2453,
      "ĠlÃ¢m": 2454,
      "ĠdÆ°ng": 2455,
      "Láº¡i": 2456,
      "Ġphim": 2457,
      "ĠkhÃ´n": 2458,
      "á»ĳm": 2459,
      "ÄĲiá»ģu": 2460,
      "ĠNhi": 2461,
      "Ġtá»ķng": 2462,
      "Ġdáº¯t": 2463,
      "ĠquÃł": 2464,
      "Ã¹n": 2465,
      "ĠPhÆ°á»£ng": 2466,
      "Hay": 2467,
      "Ġbáº¡i": 2468,
      "ĠnhÄĥn": 2469,
      "Theo": 2470,
      "Ġrá»Ńa": 2471,
      "Ġtriá»ĩu": 2472,
      "Cuá»ĳi": 2473,
      "ĠDuy": 2474,
      "ĠsÃłng": 2475,
      "Ġxoay": 2476,
      "Ġkhá»Łi": 2477,
      "ĠmÆ°u": 2478,
      "ĠsÄĥn": 2479,
      "ĠgÃ¡nh": 2480,
      "ĠxuÃ¢n": 2481,
      "ĠmÃ³c": 2482,
      "Ġcháº¥m": 2483,
      "ĠxuyÃªn": 2484,
      "ĠTá»«": 2485,
      "Ġháº¥p": 2486,
      "ĠkhuyÃªn": 2487,
      "ÄĲi": 2488,
      "Giá»įng": 2489,
      "ĠmÃ´": 2490,
      "Ġcáº¯n": 2491,
      "ĠGiÃ¡o": 2492,
      "ĠThá»ĭ": 2493,
      "Ġbáº¥y": 2494,
      "ĠkhÃ¡t": 2495,
      "Xin": 2496,
      "Cha": 2497,
      "ĠlÆ¡": 2498,
      "Ġe": 2499,
      "Ġtruyá»ĩn": 2500,
      "ĠTÃº": 2501,
      "ĠngÃ¢y": 2502,
      "ĠĠĠĠĠ": 2503,
      "!-": 2504,
      "Ġkiá»ĥm": 2505,
      "Bá»Łi": 2506,
      "ĠgÃ³i": 2507,
      "ĠrÃło": 2508,
      "Ġruá»Ļng": 2509,
      "Nhiá»ģu": 2510,
      "ÄĲÃªm": 2511,
      "Ġlan": 2512,
      "ĠĠĠĠĠĠĠĠĠĠĠĠĠĠĠĠ": 2513,
      "ĠkhÃ©o": 2514,
      "ĠdÃ²": 2515,
      "Ġkhuya": 2516,
      "ĠnÃ©m": 2517,
      "te": 2518,
      "Ġmuá»Ļn": 2519,
      "ĠquÃ¡t": 2520,
      "ĠtÃ´": 2521,
      "Ġvu": 2522,
      "Ġkiáº¿p": 2523,
      "Ġchá»¥p": 2524,
      "ou": 2525,
      "ĠsÆ°Æ¡ng": 2526,
      "!âĢĿ": 2527,
      "Ġchai": 2528,
      "Ġbá»Ľt": 2529,
      "ĠbÃºt": 2530,
      "Ġkhinh": 2531,
      "Ġláº¥p": 2532,
      "Ġtriá»ģu": 2533,
      "Ġháº§m": 2534,
      "Ġhuyá»ĩn": 2535,
      "ĠthÆ°á»Łng": 2536,
      "Tháº§y": 2537,
      "Ġquá»·": 2538,
      "Ġdáº¡o": 2539,
      "ĠhÆ°": 2540,
      "Ġrung": 2541,
      "Ġtháº£o": 2542,
      "ĠÄĳá»ĳng": 2543,
      "ĠchÃª": 2544,
      "Ġlá»Ĺ": 2545,
      "Ġhá»©ng": 2546,
      "ĠYáº¿n": 2547,
      "Ngh": 2548,
      "ĠlÃłn": 2549,
      "Ġbáº¿n": 2550,
      "ĠtrÃ¬": 2551,
      "Ġngá»Ļ": 2552,
      "Ġngoan": 2553,
      "ĠÄĳá»īnh": 2554,
      "Chiáº¿c": 2555,
      "ĠTuyáº¿t": 2556,
      "ĠTrÆ°Æ¡ng": 2557,
      "Ġtáº§ng": 2558,
      "Ġtiá»ĩm": 2559,
      "Ġdá»±a": 2560,
      "Ġquang": 2561,
      "Ġsá»©": 2562,
      "HÃ¬nh": 2563,
      "Ġná»£": 2564,
      "Ġhiá»ĩp": 2565,
      "¥a": 2566,
      "ĠdÃły": 2567,
      "ĠcÃłnh": 2568,
      "Ġgiang": 2569,
      "Thá»Ŀi": 2570,
      "Chuyá»ĩn": 2571,
      "ĠbÃ¡m": 2572,
      "Ġcuá»ĵng": 2573,
      "ĠthuáºŃn": 2574,
      "ac": 2575,
      "ĠtrÃºng": 2576,
      "Æ¡m": 2577,
      "ĠÄĳá»ĵi": 2578,
      "ĠchÃ¬m": 2579,
      "Ġtá»ĳ": 2580,
      "ĠchÃ¢u": 2581,
      "Ġngá»įc": 2582,
      "ĠThÆ°": 2583,
      "ĠVÃ¢ng": 2584,
      "ĠcÃ¡n": 2585,
      "ĠthuÃª": 2586,
      "Ġkhiáº¿p": 2587,
      "Ġtrá»¥": 2588,
      "ĠtrÃ¡n": 2589,
      "ĠMÃ£": 2590,
      "ĠtháºŃm": 2591,
      "SÃ¡ng": 2592,
      "ĠBá»Ļ": 2593,
      "ĠmÃ£n": 2594,
      "Ġnhu": 2595,
      "ChÃ¡u": 2596,
      "ĠLa": 2597,
      "ĠbuÃ´n": 2598,
      "Ġnhá»¥c": 2599,
      "ĠkhÃ³a": 2600,
      "ThÃ¡": 2601,
      "MÃły": 2602,
      "ĠTÃ´n": 2603,
      "ĠCÃ²n": 2604,
      "ĠBÃ¡c": 2605,
      "Ġtrá»£": 2606,
      "Ġdiá»ĩt": 2607,
      "ĠHÆ°ng": 2608,
      "Ġcá»Ļt": 2609,
      "Ġcay": 2610,
      "ÄĲá»«ng": 2611,
      "Ġgáº¡o": 2612,
      "Ġtrá»ĵng": 2613,
      "ĠgiÆ¡": 2614,
      "Ġá»§i": 2615,
      "Ġlau": 2616,
      "Ġlá»«a": 2617,
      "ĠCá»": 2618,
      "ĠKinh": 2619,
      "Ġváº¡n": 2620,
      "ĠxÃ¡ch": 2621,
      "-l": 2622,
      "Ġdá»¥": 2623,
      "ĠCao": 2624,
      "Ġdá»Ł": 2625,
      "ThÃ¬": 2626,
      "Ġá»ĳm": 2627,
      "ĠÄĳÃ¡o": 2628,
      "ĠmÃ´ng": 2629,
      "Bá»ĳ": 2630,
      "Ġtá»ĩ": 2631,
      "Ġá»©c": 2632,
      "ĠÄĳáº£ng": 2633,
      "Ãºy": 2634,
      "Ġrau": 2635,
      "Ġpháº¥n": 2636,
      "ĠphÃ¹": 2637,
      "NgoÃłi": 2638,
      "Ġrá»§": 2639,
      "Ġáº£o": 2640,
      "ĠvÃ¢y": 2641,
      "ĠXin": 2642,
      "Ġgá»Łi": 2643,
      "ĠÄĲá»ĵng": 2644,
      "ĠcÆ°Æ¡ng": 2645,
      "Ġbáº¡o": 2646,
      "Ġgh": 2647,
      "ĠHÃ²a": 2648,
      "ĠlÄĥm": 2649,
      "Ġváº£": 2650,
      "Ġtá»ī": 2651,
      "Ġchá»©a": 2652,
      "á»Ńu": 2653,
      "Ġtá»ĵn": 2654,
      "Ġhá»ĳt": 2655,
      "ĠHuyá»ģn": 2656,
      "ĠAi": 2657,
      "ĠkhÃ¡m": 2658,
      "ĠchÄĥn": 2659,
      "Ġti": 2660,
      "ry": 2661,
      "ĠtÃ¢y": 2662,
      "Ġlong": 2663,
      "Ġreo": 2664,
      "Ã¨m": 2665,
      "áº·m": 2666,
      "Ġthiá»ĩu": 2667,
      "Ġnguá»ĵn": 2668,
      "Ġná»ĳi": 2669,
      "ĠngÃło": 2670,
      "ĠlÃ¡nh": 2671,
      "PhÃ": 2672,
      "ĠxÃ³t": 2673,
      "Ġbá»Ļi": 2674,
      "ĠchuÃ´ng": 2675,
      "ĠrÅ©": 2676,
      "ĠdÃµi": 2677,
      "ĠThÃºy": 2678,
      "Ġlá»ĵng": 2679,
      "Ġvá»¯ng": 2680,
      "ĠÄĲÃ¬nh": 2681,
      "Ġtáº¯c": 2682,
      "Ġchá»ĳc": 2683,
      "ĠMi": 2684,
      "Ġná»ģ": 2685,
      "Ġbá»ĳc": 2686,
      "Ġgá»¡": 2687,
      "Ġtuyáº¿t": 2688,
      "Ġsáº¡n": 2689,
      "ĠchÆ°á»Łng": 2690,
      "Ã³p": 2691,
      "ĠNgh": 2692,
      "ĠÄĳuÃ´i": 2693,
      "ĠtrÃło": 2694,
      "HoÃłng": 2695,
      "ĠchÃºc": 2696,
      "ĠnÃ¢ng": 2697,
      "Ġvá»Ŀi": 2698,
      "Ġsuá»ĳi": 2699,
      "ĠThÃ¬": 2700,
      "ĠHÃ¢n": 2701,
      "ĠTá»ķng": 2702,
      "Ġliáº¿c": 2703,
      "áº¿m": 2704,
      "ĠthÃ¹ng": 2705,
      "Máº·t": 2706,
      "Ġtiá»ĩc": 2707,
      "ov": 2708,
      "ĠÄĳáº»": 2709,
      "Ġká»ĭch": 2710,
      "ĠTam": 2711,
      "Ġkhá»ĳn": 2712,
      "ĠÄĲÆ°á»Ŀng": 2713,
      "Ġbá»«ng": 2714,
      "Ġ.-": 2715,
      "Ġdáº¡ng": 2716,
      "ĠlÃ²": 2717,
      "Ġcá»Ľ": 2718,
      "ĠgÃµ": 2719,
      "Ġá»ķn": 2720,
      "ĠtuyÃªn": 2721,
      "ĠTÆ°á»Ŀng": 2722,
      "ĠmÃ¬": 2723,
      "ĠNhÃ": 2724,
      "ĠLÆ°u": 2725,
      "¯m": 2726,
      "Ġná»ĵng": 2727,
      "Ġmá»ĭ": 2728,
      "ob": 2729,
      "ĠkhoÃ¡i": 2730,
      "ak": 2731,
      "ĠKiá»ģu": 2732,
      "Ġchá»Ńi": 2733,
      "Ġsá»Ŀ": 2734,
      "Ġtrá»Ļm": 2735,
      "ĠTrÃºc": 2736,
      "ĠmÃ¨o": 2737,
      "Ġnhiá»ĩt": 2738,
      "Ġmá»įc": 2739,
      "Ġman": 2740,
      "Vá»£": 2741,
      ";m": 2742,
      "Ġáº¥n": 2743,
      "ĠtÃºng": 2744,
      "Ġkhuáº¥t": 2745,
      "Ġá»ª": 2746,
      "ĠtÃ²": 2747,
      "ĠÄĳao": 2748,
      "Ġmáº¯ng": 2749,
      "Ġgáº§y": 2750,
      "Ġlá»ģ": 2751,
      "Ġngáº¯t": 2752,
      "Ġmáº¯n": 2753,
      "Giá»Ŀ": 2754,
      "Ġgáº¡t": 2755,
      "ĠChÃŃnh": 2756,
      "Ġnha": 2757,
      "Ġkhung": 2758,
      "Ġtá»©": 2759,
      "Ġáº£": 2760,
      "ĠÄĲÃºng": 2761,
      "Ġbuá»ĵng": 2762,
      "ĠChÃºng": 2763,
      "á»©c": 2764,
      "and": 2765,
      "ĠÃ©p": 2766,
      "Bá»įn": 2767,
      "ĠchÃ©p": 2768,
      "ĠkhÃŃch": 2769,
      "ThÃ": 2770,
      "ĠSinh": 2771,
      "Ġtrá»«ng": 2772,
      "Ġdá»ĵn": 2773,
      "ĠthÃ¢m": 2774,
      "ĠUyÃªn": 2775,
      "ĠlÄ©nh": 2776,
      "ĠÄĳáº¯c": 2777,
      "Ġngá»Ļt": 2778,
      "ĠDÅ©ng": 2779,
      "Ġcáº¥m": 2780,
      "ĠdÃ¢ng": 2781,
      "ĠhÃłm": 2782,
      "Ġgiáº£ng": 2783,
      "ĠÄĳá»ĵn": 2784,
      "ĠThi": 2785,
      "Ġnhi": 2786,
      "Biáº¿t": 2787,
      "Ġmá»±c": 2788,
      "ĠĠĠĠĠĠĠĠĠ": 2789,
      "ĠcÃ¡m": 2790,
      "Ġquyá»ĥn": 2791,
      "ĠLoan": 2792,
      "ĠlÃ¹i": 2793,
      "ĠquÃŃ": 2794,
      "Ġbá»ģ": 2795,
      "ĠtÃ²a": 2796,
      "ĠrÃ£i": 2797,
      "oáº¡i": 2798,
      "ĠÂ": 2799,
      "ĠngÃ´n": 2800,
      "Ġáº¥p": 2801,
      "ad": 2802,
      "ĠláºŃt": 2803,
      "Ġtá»ĭch": 2804,
      "ap": 2805,
      "Ġtá»ĳn": 2806,
      "khÃ´ng": 2807,
      "Ġthiáº¿p": 2808,
      "ĠmÆ°á»£n": 2809,
      "ing": 2810,
      "ĠThiáº¿u": 2811,
      "ĠKhang": 2812,
      "Ġhoáº¡ch": 2813,
      "ĠNgÃłi": 2814,
      "ĠÄĳÃłng": 2815,
      "Ġnhá»ĭp": 2816,
      "ĠPháº£i": 2817,
      "ĠlÃ£ng": 2818,
      "ĠBáº£y": 2819,
      "ĠMÃły": 2820,
      "Ġhung": 2821,
      "Ġláº§u": 2822,
      "Ġáº§m": 2823,
      "Ġxoa": 2824,
      "ĠthÃ³i": 2825,
      "ĠNgÃ´": 2826,
      "Ġchá»ĳn": 2827,
      "ĠLÃ£o": 2828,
      "Ġmá»ıng": 2829,
      "Cuá»Ļc": 2830,
      "Ġvá»Ł": 2831,
      "Ġtá»¥": 2832,
      "Ġgá»įn": 2833,
      "ĠTháº¡ch": 2834,
      "Mai": 2835,
      "áº¿ch": 2836,
      "ĠvÃ¡ch": 2837,
      "ne": 2838,
      "ĠÄĳá»©t": 2839,
      "ĠdÃŃnh": 2840,
      "ĠBÃŃch": 2841,
      "ĠÃļ": 2842,
      "ĠPhan": 2843,
      "ĠtÃ¹y": 2844,
      "Ġláº»": 2845,
      "Ġcá»Łi": 2846,
      "Ġcam": 2847,
      "Ġsá»¯a": 2848,
      "ĠxÃ´": 2849,
      "áº¹n": 2850,
      "Æ°á»Łi": 2851,
      "ĠÄĳá»¥ng": 2852,
      "ĠphÃŃ": 2853,
      "Ġbá»ĵ": 2854,
      "Ġbá»įc": 2855,
      ".Th": 2856,
      "ChÆ°a": 2857,
      "ĠngÅ©": 2858,
      "Ġngá»£i": 2859,
      "Ġcá»ĳc": 2860,
      "Ġxao": 2861,
      "ĠSÃ¡u": 2862,
      ".âĪĴ": 2863,
      "ĠnghiÃªn": 2864,
      "ĠdÆ°á»¡ng": 2865,
      "ĠÄĳÄĥm": 2866,
      "Ġtri": 2867,
      "Ġchá»įc": 2868,
      "Ġgiáº·c": 2869,
      "ĠGiá»": 2870,
      "ter": 2871,
      "Ġthai": 2872,
      "Ġchui": 2873,
      "Ġtáº¡p": 2874,
      "ĠkÃ¬a": 2875,
      "Ġvá»¥t": 2876,
      "ĠtrÃ¢u": 2877,
      "Ġngáº©n": 2878,
      "Pháº": 2879,
      "ĠnÃ£o": 2880,
      "Ġtang": 2881,
      "ĠkiÃªn": 2882,
      "Ġháº¡ng": 2883,
      "Ġlá»¡": 2884,
      "av": 2885,
      "Ġsá»¯ng": 2886,
      "ĠMy": 2887,
      "ĠPhÃºc": 2888,
      "ĠsÃłn": 2889,
      "ĠHoÃłi": 2890,
      "ĠrÃ¢u": 2891,
      "ÃĢ": 2892,
      "Ġgáº¯n": 2893,
      "BÃªn": 2894,
      "...&": 2895,
      "Ġmá»ĵm": 2896,
      "ĠchÃ¡nh": 2897,
      "ag": 2898,
      "Bá»Ĺng": 2899,
      "Há»ĵi": 2900,
      "ĠÄĳiáº¿u": 2901,
      "ĠhÃł": 2902,
      "Ġngáº¥t": 2903,
      "Ġnghá»ĭch": 2904,
      "ĠKháº": 2905,
      "ĠÄĳá»ģn": 2906,
      "Ġbia": 2907,
      "ĠÃĤu": 2908,
      "ĠChÃ¡u": 2909,
      "ĠLy": 2910,
      "Ġháº£i": 2911,
      "áº©ng": 2912,
      "Ġcau": 2913,
      "Ġmáº¡ch": 2914,
      "Ġcáº¯m": 2915,
      "ĠngÃ¢m": 2916,
      "Ġlá»±a": 2917,
      "ĠQuyÃªn": 2918,
      "Ġao": 2919,
      "ĠrÃŃt": 2920,
      "Ġbáº©m": 2921,
      ".NhÆ°ng": 2922,
      "ĠlÆ°á»Ľt": 2923,
      "Ġnháº·t": 2924,
      "Ġghen": 2925,
      "ĠxuÃ´i": 2926,
      "Ġgan": 2927,
      ".D": 2928,
      "VÃło": 2929,
      "Ġhi": 2930,
      "Ġmuá»Ļi": 2931,
      "ĠcÃ¢n": 2932,
      "ĠdÃ£y": 2933,
      "Ġkhá»©": 2934,
      "¡n": 2935,
      "NÆ°á»Ľc": 2936,
      "ĠngÃµ": 2937,
      "CÃ´ng": 2938,
      "TÃ¬nh": 2939,
      "ĠHuá»ĩ": 2940,
      "ĠNhÃł": 2941,
      "ĠYÃªn": 2942,
      "ĠhÃ¡i": 2943,
      "Ġdá»Ļi": 2944,
      "Ġthá»ģ": 2945,
      ".Má»Ļt": 2946,
      "ĠlÃºa": 2947,
      "ĠgÃ³p": 2948,
      "ĠmÃłng": 2949,
      "Ġcáº¡n": 2950,
      "ĠxÃ©": 2951,
      "-c": 2952,
      ".Tr": 2953,
      "ĠphÃ¡n": 2954,
      "Ġcá»±": 2955,
      "Ġlá»Ŀ": 2956,
      "Ġtrá»įn": 2957,
      "ĠgiÃły": 2958,
      ".ÃĶng": 2959,
      "?âĢĿ.": 2960,
      "Ġdá»ĳc": 2961,
      "ĠNÃ³": 2962,
      "Ġpháº¡": 2963,
      "á»Ĺi": 2964,
      "ĠrÃ¡ch": 2965,
      "Buá»ķi": 2966,
      "ĠvÃŃ": 2967,
      "ĠLá»ĩ": 2968,
      "ĠtáºŃt": 2969,
      "ĠngÆ°á»Ľc": 2970,
      "ĠKha": 2971,
      "ĠCáºŃu": 2972,
      "ĠLáº¡c": 2973,
      "ĠtrÃ¹ng": 2974,
      "Ġcáº£n": 2975,
      "ĠphÃ¡o": 2976,
      "ĠvÃº": 2977,
      "Báº¡n": 2978,
      "ĠxÃ¡m": 2979,
      "Ġnhá»įc": 2980,
      "ĠtÃ¡ch": 2981,
      "á»ĩ": 2982,
      "Ġsoáº¡n": 2983,
      "Ġtre": 2984,
      "CÃ¢u": 2985,
      "á»įa": 2986,
      "ÄĲÆ°á»£c": 2987,
      "ĠhoÃł": 2988,
      "ĠÄĳáº¯m": 2989,
      "ĠchÃ¬a": 2990,
      "Ġngáº©ng": 2991,
      "Ġngáº§n": 2992,
      "Ġtáº¡": 2993,
      "ĠtÃŃm": 2994,
      "Ġcá»ĳt": 2995,
      "Ġváº¥t": 2996,
      "ĠKhi": 2997,
      "Ġgá»£i": 2998,
      "Ġngháº¹n": 2999,
      "ĠSÆ°": 3000,
      "Ġngáº£": 3001,
      "ĠsÃ´i": 3002,
      "ĠNguyá»ĩt": 3003,
      "Ġtia": 3004,
      "Ġlanh": 3005,
      "Ġni": 3006,
      "ĠthÃŃ": 3007,
      "ĠlÃ´": 3008,
      "Ġlung": 3009,
      "od": 3010,
      "á»¯u": 3011,
      "ĠHáº±ng": 3012,
      "Ġchua": 3013,
      "Máº·c": 3014,
      "Ġxá»©ng": 3015,
      "VÅ©": 3016,
      "Gia": 3017,
      "Ġgá»ĵm": 3018,
      "ĠChá»ī": 3019,
      "ĠHiá»ģn": 3020,
      "Ġláº©m": 3021,
      "ĠbÃło": 3022,
      "ĠchÃ´n": 3023,
      "Ġdiá»ĩu": 3024,
      "ĠNháº¥t": 3025,
      "Ġthá»¥": 3026,
      "Ġgáº¯t": 3027,
      "ĠthÆ°á»Ľc": 3028,
      "ĠmuÃ´n": 3029,
      "ĠvÆ¡": 3030,
      "Ġngá»¡": 3031,
      "Ġuy": 3032,
      "Ġhuyá»ģn": 3033,
      "Ġkhe": 3034,
      "Æ°Æ¡n": 3035,
      "ĠÄĲá»«ng": 3036,
      "Tiá»ĥu": 3037,
      "á»«ng": 3038,
      "ĠHÃłn": 3039,
      "ĠCá»Ļng": 3040,
      "Qua": 3041,
      "ĠChÃŃ": 3042,
      "ĠTao": 3043,
      "Ġvá»ı": 3044,
      "ĠÄĳáº§m": 3045,
      "ĠVÃ´": 3046,
      "Ġkhá»ĳi": 3047,
      "Ľp": 3048,
      "ĠbÃłng": 3049,
      "Ġ:âĪĴ": 3050,
      "Ġsoi": 3051,
      "¯a": 3052,
      "ĠcÃºng": 3053,
      "ĠxÃ´ng": 3054,
      "Ġhoan": 3055,
      "ĠCÃ¡c": 3056,
      "Ġdoanh": 3057,
      "-Äĳ": 3058,
      "!âĢĿ.": 3059,
      "ĠcáºŃn": 3060,
      "ĠÆ°a": 3061,
      "ĠÄĳáº¯ng": 3062,
      "Ġbáº¯c": 3063,
      "Ngá»įc": 3064,
      "HÆ¡n": 3065,
      "Ġchuá»Ļt": 3066,
      "PhÆ°Æ¡ng": 3067,
      "Ġga": 3068,
      "ĠkhoÃ¡c": 3069,
      "ĠnÃ©n": 3070,
      "Ġpháº¡t": 3071,
      "ine": 3072,
      "ĠTáº¿t": 3073,
      "Ġcá»¡": 3074,
      "ĠÄĲÃł": 3075,
      "³m": 3076,
      "ĠngÃ¢n": 3077,
      "ĠÆ": 3078,
      "Viá»ĩc": 3079,
      "Ġrá»Ļn": 3080,
      "Ġbiá»ĩn": 3081,
      "ton": 3082,
      "ĠTÃ¹ng": 3083,
      "ĠchÃ¢m": 3084,
      "id": 3085,
      "ĠÄĳÄĥng": 3086,
      "ĠnghÃ¬n": 3087,
      "Ġváº«y": 3088,
      "Ġáº¤": 3089,
      "ĠbÃ£o": 3090,
      "ĠthÃ´n": 3091,
      ":&": 3092,
      "ĠÄĳÃł": 3093,
      "á»ĳp": 3094,
      "Bao": 3095,
      "ĠtÃ¡o": 3096,
      "ĠmÃ£": 3097,
      "ĠPhá»¥ng": 3098,
      "ĠÄĲáº¡o": 3099,
      "Ġbá»ĵi": 3100,
      "Ġnuá»ĳt": 3101,
      "ThiÃªn": 3102,
      "Ġnáº£y": 3103,
      "ĠbÃ³p": 3104,
      "Ġgá»¥c": 3105,
      "Thu": 3106,
      "Ġmá»¹": 3107,
      "Do": 3108,
      "ĠTiÃªu": 3109,
      "Ġlá»įt": 3110,
      "Ġmanh": 3111,
      "Ġnáº¥y": 3112,
      "ĠÄĳÃ²n": 3113,
      "«u": 3114,
      "Ġbáº¯p": 3115,
      "Ġká»ĩ": 3116,
      ".S": 3117,
      "-s": 3118,
      "Ġváº¹n": 3119,
      "Ġgiáº£m": 3120,
      "ĠlÃª": 3121,
      "ĠQuan": 3122,
      "um": 3123,
      "ph": 3124,
      "Ġtháº¥m": 3125,
      "Ġa": 3126,
      "Ġmáº¡n": 3127,
      "ĠCÃºc": 3128,
      "ĠThÃ¡nh": 3129,
      ".K": 3130,
      "Ġcháº§": 3131,
      "ĠBÃ¡": 3132,
      "ĠxÃ¡": 3133,
      "ĠTriá»ĩu": 3134,
      "ĠÄĲÆ°á»£c": 3135,
      "Ġphá»ķ": 3136,
      "Ġthoáº£i": 3137,
      "ĠtÃºc": 3138,
      "ĠlÃ©n": 3139,
      "ĠKhá»": 3140,
      "Ġá»ĵn": 3141,
      "Báº¥t": 3142,
      "ĠdÆ°": 3143,
      "ĠmÃŃ": 3144,
      "Ġbáº¡ch": 3145,
      "ĠTáº§n": 3146,
      "ĠHÃ¡n": 3147,
      "Ġdá»Ĺ": 3148,
      "Ĥn": 3149,
      "ĠxÆ°ng": 3150,
      "ĠÄĲÃło": 3151,
      "ĠTháºŃt": 3152,
      "á»Ńa": 3153,
      "Ġliá»ģu": 3154,
      "Ġháº¹": 3155,
      "Ġnheo": 3156,
      "Ġgáº¡ch": 3157,
      "ĠrÃ¹ng": 3158,
      "ĠthÃ©t": 3159,
      "ĠgÃło": 3160,
      "ĠÄĳÄ©a": 3161,
      "Ġtrá»©ng": 3162,
      "-m": 3163,
      "Ġvá»Ŀ": 3164,
      "ĠlÃºng": 3165,
      "ĠvÄ©nh": 3166,
      "ĠngÃ¡c": 3167,
      "ĠthÃ²": 3168,
      "ĠVinh": 3169,
      "ĠCÃ¡t": 3170,
      "Ġcong": 3171,
      "ĠÄĳÃ£i": 3172,
      "ĠthÃ¡o": 3173,
      "Ġtháº¯c": 3174,
      "ĠnhÃ£": 3175,
      "Ġve": 3176,
      "ĠSÄ©": 3177,
      "ĠthÃ´": 3178,
      "ĠbÆ¡i": 3179,
      "Ġnháº±m": 3180,
      "Ġchen": 3181,
      "Ġkhoáº»": 3182,
      "ĠÆ°u": 3183,
      "ĠnÃ¨": 3184,
      "Ġlen": 3185,
      "Ġbang": 3186,
      "ĠLam": 3187,
      "Ġtá»ĳc": 3188,
      "ĠHuáº¿": 3189,
      "ĠbÃª": 3190,
      "ĠngÆ°á»£ng": 3191,
      "Tá»±": 3192,
      "ĠsÃ¡o": 3193,
      "Ġháº¹p": 3194,
      "ĠtÄĥm": 3195,
      "ĠÄĳuá»ĳi": 3196,
      "ĠÄĳÃ²": 3197,
      "Ġná»Ļ": 3198,
      "ĠVy": 3199,
      "ĠâĢĺ": 3200,
      "Ġviá»ħn": 3201,
      "ĠoÃ¡n": 3202,
      "ĠHiáº¿u": 3203,
      "ĠcÃº": 3204,
      ".Trong": 3205,
      "¹y": 3206,
      "NghÄ©": 3207,
      "ĠxÃŃch": 3208,
      "ĠÃĤn": 3209,
      "Ġvung": 3210,
      "-x": 3211,
      "ĠÄĳáº£": 3212,
      "ĠNÃ³i": 3213,
      "Ġcá»į": 3214,
      "ĠDo": 3215,
      "Ġsáº»": 3216,
      "ĠsiÃªu": 3217,
      "Ġráº½": 3218,
      "ĠTá»±": 3219,
      "ran": 3220,
      "Ġgáº§m": 3221,
      "Ġá»ķng": 3222,
      "Quáº£": 3223,
      "oh": 3224,
      "ĠxÃ´i": 3225,
      "Ġtam": 3226,
      "Ġhiáº¿u": 3227,
      "ĠkhÃ©p": 3228,
      "tÃ´i": 3229,
      "Ġmáº§u": 3230,
      "«n": 3231,
      "ĠkÃª": 3232,
      "Thá»±c": 3233,
      "Chiá»ģu": 3234,
      "ĠÄĳÃ¡y": 3235,
      "ĠVÃµ": 3236,
      "Ġcáº¯p": 3237,
      "Ġham": 3238,
      "Ġbáº§y": 3239,
      "Ġthuá»Ł": 3240,
      "Hoa": 3241,
      "ĠTrong": 3242,
      "Ġno": 3243,
      "ĠmÃ©p": 3244,
      "ĠLu": 3245,
      "ĠNghÄ©a": 3246,
      "ĠdáºŃp": 3247,
      "ĠNgÃ¢n": 3248,
      "ĠmÃºa": 3249,
      "Ġváº·t": 3250,
      "Ġxua": 3251,
      "ĠTÃłu": 3252,
      ".Anh": 3253,
      "Ġlá»į": 3254,
      "ĠbÃ£": 3255,
      "-n": 3256,
      "ĠnhÃ¡t": 3257,
      "Ġhang": 3258,
      "ĠtrÆ°Æ¡ng": 3259,
      "Ġgiam": 3260,
      "ĠkiÃªu": 3261,
      "gi": 3262,
      "áº¡y": 3263,
      "Ãģnh": 3264,
      "LÃł": 3265,
      "ĠKháº£i": 3266,
      "ĠCÆ¡": 3267,
      "ĠQuáº£ng": 3268,
      "-v": 3269,
      "Ġnhá»§": 3270,
      "ĠbÃ¹": 3271,
      "ĠSa": 3272,
      "ĠBá»": 3273,
      "ard": 3274,
      "Ġmiá»ħn": 3275,
      "Ġquá»": 3276,
      "hÃºc": 3277,
      "ĠvÄ©": 3278,
      "Ġnháº¯n": 3279,
      "ĠdÃ£": 3280,
      "Ġthiá»ģn": 3281,
      "Ãµm": 3282,
      "ĠChuyá»ĩn": 3283,
      "ĠbÃ¡": 3284,
      "ĠcÄĥm": 3285,
      "ĠvÃ¢n": 3286,
      "Ġthá»ıa": 3287,
      "ĠĠĠĠĠĠ": 3288,
      "ĠBáº±ng": 3289,
      "ĠlÄĥng": 3290,
      "ĠnhÆ°á»Ŀng": 3291,
      "ĠkhoÃ¡t": 3292,
      "ĠBá»ĳ": 3293,
      "Ġhá»Ĺ": 3294,
      "ĠThá»§": 3295,
      "ĠsÃ³t": 3296,
      "ĠtháºŃp": 3297,
      "LÃ½": 3298,
      "ĠtrÃªu": 3299,
      "ĠnÃ¢u": 3300,
      "Ġháº¥t": 3301,
      "ĠkhÃ¡ng": 3302,
      "Thanh": 3303,
      "ĠtrÆ°á»£ng": 3304,
      "Ġquáº¥n": 3305,
      ";y": 3306,
      "----": 3307,
      "Ġquyáº¿n": 3308,
      "ĠDi": 3309,
      "ĠmÃ£nh": 3310,
      "Máº¯t": 3311,
      ".âĢľ": 3312,
      "ĠcÆ°á»Ŀng": 3313,
      "ĠchoÃłng": 3314,
      "ĠsÃ¡nh": 3315,
      "Ġgá»Ľm": 3316,
      "Ġtháº¯t": 3317,
      "NG": 3318,
      "ĠhÃ²n": 3319,
      "£m": 3320,
      "ĠxÃ¬": 3321,
      "ĠbÆ°ng": 3322,
      "ĠgÆ°á»£ng": 3323,
      "ĠLÃłm": 3324,
      "Ġngá»Ńa": 3325,
      "ĠquÃ£ng": 3326,
      "ĠLÆ°Æ¡ng": 3327,
      "TÃªn": 3328,
      "ĠrÃ¡c": 3329,
      "Ãµng": 3330,
      "Ġkháº©n": 3331,
      "ĠÃļt": 3332,
      "Ġoan": 3333,
      "ThÃ¡i": 3334,
      "ĠxÃ¢m": 3335,
      "ĠTrá»įng": 3336,
      "¥u": 3337,
      "-b": 3338,
      "Ġchá»īnh": 3339,
      "ĠmÃ©t": 3340,
      "ĠgiÃłnh": 3341,
      "ĠÃĶ": 3342,
      "Ġtáº£ng": 3343,
      "Ġná»©c": 3344,
      "ĠthÃ¡c": 3345,
      "ĠÄĳáº¿m": 3346,
      "ĠPháº¡m": 3347,
      "ro": 3348,
      "Ġtoan": 3349,
      "ĠtÃª": 3350,
      "ĠVÃ¬": 3351,
      "Ġha": 3352,
      "Ġthao": 3353,
      "ĠquÃ©t": 3354,
      "ul": 3355,
      "ĠtÃ¢n": 3356,
      "Ġhiáº¿m": 3357,
      "Å©i": 3358,
      "ĠtÆ¡": 3359,
      "ki": 3360,
      "ĠThÆ°Æ¡ng": 3361,
      "Ġtrá»ħ": 3362,
      "Ġyáº¿m": 3363,
      "Ġá»ŀ": 3364,
      "ĠhÃ¨n": 3365,
      "Ġháº±ng": 3366,
      "ĠBÄĥng": 3367,
      ".BÃł": 3368,
      "ĠKhoa": 3369,
      "ent": 3370,
      "Minh": 3371,
      "ĠtÆ°á»Ľc": 3372,
      "ĠÃºt": 3373,
      "Ġtáº¥p": 3374,
      "ĠlÆ°á»£c": 3375,
      "Ġbá»ĵng": 3376,
      "Ġnhá»ĭn": 3377,
      "Ġpháº¥t": 3378,
      "Ġxá»ī": 3379,
      "ĠtÃł": 3380,
      "ĠchÃ©m": 3381,
      "ĠphiÃªn": 3382,
      "ĠdÃ¨": 3383,
      "ĠÄĲan": 3384,
      "ta": 3385,
      "Ġtiá»ħn": 3386,
      "ĠngÆ°á»¡ng": 3387,
      "Ġdáº¹p": 3388,
      "Ġhá»ıng": 3389,
      "Ġhuyáº¿t": 3390,
      "Tá»ĳi": 3391,
      "ĠnÃłn": 3392,
      "Æ°Æ¡m": 3393,
      "ĠthÃŃm": 3394,
      "ĠKhanh": 3395,
      "Ġtá»ıa": 3396,
      "Ġquá»³": 3397,
      "Ngá»ĵi": 3398,
      "TÃ¢m": 3399,
      "hÃª": 3400,
      "Ġsáº§u": 3401,
      "Nháº¥t": 3402,
      "ĠNhÃ£": 3403,
      "uÃ´n": 3404,
      "Ġthiá»ĩp": 3405,
      "ĠmÃªnh": 3406,
      "ĠSá»Ł": 3407,
      "ĠBan": 3408,
      "Ġcuá»Ļn": 3409,
      "...-": 3410,
      "ĠNgÆ°Æ¡i": 3411,
      "ĠxÃŃ": 3412,
      "ĠDiá»ħm": 3413,
      ".CÃ´": 3414,
      "Ġcuá»ĳng": 3415,
      "QuÃ¢n": 3416,
      "ĠÄĲá»Ļ": 3417,
      "Ġláº¡y": 3418,
      "Ġdáº±n": 3419,
      "ĠhÃŃt": 3420,
      "ĠrÃ£": 3421,
      "Ġráº»": 3422,
      "ĠCung": 3423,
      "ĠÄĲoan": 3424,
      "ed": 3425,
      "ĠThÃ´ng": 3426,
      "¡c": 3427,
      "ĠvÃ¡c": 3428,
      "ĠÄĲá»ĭnh": 3429,
      ".NgÆ°á»Ŀi": 3430,
      "Ġráº§u": 3431,
      "ĠvÃ©": 3432,
      "ĠÄĲá»ĥ": 3433,
      "Ġháº¯t": 3434,
      "ĠtrÃ¡ng": 3435,
      "ĠNÃłng": 3436,
      "Ġnáº¿p": 3437,
      "ĠgÃ²": 3438,
      "Ġmá»Ľ": 3439,
      "Ġmáº§y": 3440,
      "Ġnhá»Ł": 3441,
      "Ġnhá»ķ": 3442,
      "Ġná»ĵi": 3443,
      "Ġdá»įa": 3444,
      "Ġná»ī": 3445,
      "Má»Ľi": 3446,
      "Ġbáº©n": 3447,
      "Ġrá»ĥ": 3448,
      "ck": 3449,
      "ĠchÃ¨": 3450,
      "ĠCha": 3451,
      "Ġhá»ĩt": 3452,
      "hÃ³": 3453,
      "ĠrÃªn": 3454,
      "ĠChá»§": 3455,
      "ĠRá»ĵi": 3456,
      "Ġmen": 3457,
      "ĠrÃ³t": 3458,
      "ĠtrÃº": 3459,
      "ĠSan": 3460,
      "ĠToÃłn": 3461,
      "ĠgiÃ£": 3462,
      "ĠxÃł": 3463,
      "ÄĲáº¡i": 3464,
      "Ġ.âĪĴ": 3465,
      "ĠNhá»¯ng": 3466,
      ";TÃ´i": 3467,
      "Ġngáº§m": 3468,
      "Ġngá»¥c": 3469,
      "ĠHá»¯u": 3470,
      "Ġtrá»£n": 3471,
      "Ġf": 3472,
      "ĠnhÃºn": 3473,
      "ĠPar": 3474,
      "á»£": 3475,
      "ĠnÃ´": 3476,
      "ĠBÃ¢y": 3477,
      "ĠAl": 3478,
      "Æ°á»Ľn": 3479,
      "ĠLá»¥c": 3480,
      "***": 3481,
      "Ġgai": 3482,
      "ĠÄĳáºŃm": 3483,
      "Ġhá»Ŀn": 3484,
      "ĠngÆ¡i": 3485,
      "ĠNinh": 3486,
      "á»±c": 3487,
      "Ġbá»ĥ": 3488,
      "Ġrá»ī": 3489,
      "ĠQuÃ½": 3490,
      "Ġxáº»": 3491,
      "ĠViÃªn": 3492,
      "ĠtrÃ¹m": 3493,
      "Ġá»Ľt": 3494,
      "Ġbá»ķn": 3495,
      "Ġlá»Ļi": 3496,
      "ĠtÃ©": 3497,
      "Ġli": 3498,
      "ĠThá»¥c": 3499,
      "Ġlá»¥a": 3500,
      "ÄĲáº§u": 3501,
      "?âĢĵ": 3502,
      "Ġphá»©c": 3503,
      "Ġbá»ĩ": 3504,
      "Bá»Ļ": 3505,
      "Ġtrá»į": 3506,
      ";nh": 3507,
      "Ġq": 3508,
      "ĠÄĳáº¥m": 3509,
      "Ġtriáº¿t": 3510,
      "Ġváº©n": 3511,
      "Ġson": 3512,
      "ĠtrÃºc": 3513,
      "Ġtháº¹n": 3514,
      "ĠÄĳáº¯p": 3515,
      "ĠLiá»ħu": 3516,
      "uá»·": 3517,
      "Ġxáº¿": 3518,
      "ĠhÃ£nh": 3519,
      "Å©a": 3520,
      "ĠgiÃ¹m": 3521,
      "ĠlÃŃ": 3522,
      "ĠTiáº¿n": 3523,
      "Ġkhoe": 3524,
      "Ġhu": 3525,
      "ĠHoÃłn": 3526,
      "VÄĥn": 3527,
      "Nhá»Ľ": 3528,
      "Ġráº¯c": 3529,
      "Ġlay": 3530,
      "Ġhá»įng": 3531,
      "ĠthÄĥng": 3532,
      "Ġtháº³m": 3533,
      "Ġmá»£": 3534,
      "Ġláº·n": 3535,
      "ĠMÃ¬nh": 3536,
      "Suá»ĳt": 3537,
      "Ġbáº¿": 3538,
      "GiÃ³": 3539,
      "HÃł": 3540,
      "ĠtÃ¡t": 3541,
      "ĠnÃŃt": 3542,
      "ĠÄĲáº£ng": 3543,
      "Ġvan": 3544,
      "ĠcáºŃp": 3545,
      "ĠnÃŃn": 3546,
      "Ġkhoáº£n": 3547,
      "hÃ¡ch": 3548,
      "ThÃłnh": 3549,
      "Ã£m": 3550,
      "ĠCháº¯c": 3551,
      "ĠNhá»ĭ": 3552,
      "ÄĲá»ĵng": 3553,
      "ĠxÃŃu": 3554,
      "ĠVÃł": 3555,
      "ĠÄĲi": 3556,
      "ĠÄĳá»¥c": 3557,
      "ĠHÃ´m": 3558,
      "Ġbáº£ng": 3559,
      "ĠchÃ¡o": 3560,
      "ĠtÃ¡nh": 3561,
      "ĠtrÆ¡": 3562,
      "ohn": 3563,
      "Nam": 3564,
      "ĠmÃ²n": 3565,
      "ĠhiÃªn": 3566,
      "Ãģ": 3567,
      "Ġbom": 3568,
      "uá»ĵng": 3569,
      "ĠhÄĥng": 3570,
      "ĠmiÃªn": 3571,
      "Ġráº©y": 3572,
      "Giá»¯a": 3573,
      ":âĢľ": 3574,
      "ĠCáº£": 3575,
      "ĠTrÃ¢m": 3576,
      "ĠKhu": 3577,
      "Ġlá»ĵ": 3578,
      "Ġkiá»ĩt": 3579,
      "lo": 3580,
      ";Anh": 3581,
      "ĠÄĳá»ĳ": 3582,
      "ĠTrinh": 3583,
      "Ġ[": 3584,
      "Ġngá»ĳc": 3585,
      "ĠthÃ¬nh": 3586,
      "Ġtuyáº¿n": 3587,
      "ĠcÆ°á»¡ng": 3588,
      "ĠÄĳinh": 3589,
      "Ġmá»ĳt": 3590,
      "Ġva": 3591,
      "ĠnÃ´n": 3592,
      "ĠngÆ°ng": 3593,
      "Ġme": 3594,
      "ÄĲÃ´ng": 3595,
      "ĠÄĳÃ¨": 3596,
      "ĠCá»Ńu": 3597,
      "ho": 3598,
      "Ġheo": 3599,
      "ĠphÃ¬": 3600,
      "Ġthinh": 3601,
      "ĠCáº§m": 3602,
      "NÃło": 3603,
      "Ġsá»¥p": 3604,
      "ĠSÆ°Æ¡ng": 3605,
      "ĠÄĳÃ¹i": 3606,
      "Ä©u": 3607,
      "Ġvá»ĭt": 3608,
      "ĠTá»©": 3609,
      "ĠÄĳiá»ĥn": 3610,
      "cÃ³": 3611,
      "Ġthá»į": 3612,
      "ab": 3613,
      "ĠvÆ°Æ¡n": 3614,
      "Váº£": 3615,
      "ĠquáºŃn": 3616,
      "ĠTháº§y": 3617,
      "áºµng": 3618,
      "Thá»īnh": 3619,
      "ĠÄĳáº·ng": 3620,
      "ann": 3621,
      "ke": 3622,
      "ĠTá»ĭnh": 3623,
      "Chá»£t": 3624,
      "ĠcháºŃp": 3625,
      "Ġkhá»ī": 3626,
      "ĠtrÃ¢n": 3627,
      "Ġmáº¡c": 3628,
      "ĠphÆ¡i": 3629,
      "Ġkhoan": 3630,
      "á»ĥn": 3631,
      "vÃł": 3632,
      ";Äĳ": 3633,
      "ĠÃºy": 3634,
      "Ġmáº½": 3635,
      "ĠTÃ¡m": 3636,
      "ĠsoÃ¡t": 3637,
      "Ġhuyá»ĩt": 3638,
      "ĠthÃł": 3639,
      "Song": 3640,
      "ĠChÆ°Æ¡ng": 3641,
      "Ġmuá»ĳi": 3642,
      "Ġtá»¥ng": 3643,
      "ĠnÃ³n": 3644,
      "Ġváº¯t": 3645,
      "Ġrá»Ľt": 3646,
      "ĠLÃ¢n": 3647,
      "ĠThÆ¡": 3648,
      "Ġcháº·n": 3649,
      "ĠÄĲáº¡t": 3650,
      "Ġlá»ģu": 3651,
      "ĠÃ´i": 3652,
      "ion": 3653,
      "ĠÃ´n": 3654,
      "ĠnÆ°á»Ľng": 3655,
      "ĠhÃ´ng": 3656,
      "tháº": 3657,
      "ĠngáºŃm": 3658,
      "ÄĲá»ĳi": 3659,
      "Ġluá»ĵng": 3660,
      "ĠÃĢ": 3661,
      "NhÃ¢n": 3662,
      "ce": 3663,
      "ĠbÆ¡": 3664,
      "ĠngÃłnh": 3665,
      "Æ°á»Ľm": 3666,
      "ĭa": 3667,
      "ĠThiáº¿t": 3668,
      "Ġvá»Ľ": 3669,
      "Ġmá»ķ": 3670,
      "ĠnhÃło": 3671,
      "ĠvuÃ´ng": 3672,
      "ĠVáº¡n": 3673,
      "Ġháº£o": 3674,
      "ĠCá»ķ": 3675,
      "NguyÃªn": 3676,
      "ĠÆ°Æ¡ng": 3677,
      "ĠChÃ¢n": 3678,
      "Ġmá»ı": 3679,
      "Ġbáº§n": 3680,
      "MÃ¡": 3681,
      "arry": 3682,
      "ly": 3683,
      "ĠDiá»ĩu": 3684,
      "ĠThuáºŃn": 3685,
      "Ġhuá»ĳng": 3686,
      "ĠMiÃªn": 3687,
      "Ġnhá»©c": 3688,
      "eng": 3689,
      "ĵi": 3690,
      "ĠÂ«": 3691,
      "Ġmá»ĵi": 3692,
      "Ġvá»įt": 3693,
      "Ġbá»ıng": 3694,
      "Ġlá»£n": 3695,
      "ĠLá»Ļc": 3696,
      "Ġ..": 3697,
      "ĠtÃŃt": 3698,
      "Ġgiá»¥c": 3699,
      "ÄĲang": 3700,
      "Ġrá»¥ng": 3701,
      "Muá»ĳn": 3702,
      "ĵm": 3703,
      "ĠCÅ©ng": 3704,
      "Ġnhung": 3705,
      "Ġgiá»Ł": 3706,
      "son": 3707,
      "ĠvÃ¢ng": 3708,
      "Ġbá»Ļt": 3709,
      "±m": 3710,
      "Ġlá»±": 3711,
      "ĠMáº¡nh": 3712,
      ";b": 3713,
      "Ġnghiáº¿n": 3714,
      "ĠhÃ©": 3715,
      "ĠlÃ³": 3716,
      "Ġhá»ıa": 3717,
      "ĠHy": 3718,
      "Ġxen": 3719,
      "Kim": 3720,
      "ĠvÄĥng": 3721,
      "ĠkÃ¨m": 3722,
      "Ġáº©m": 3723,
      "ĠLai": 3724,
      "Ġtáº¿t": 3725,
      "ĠnÄĥn": 3726,
      "ĠÃģi": 3727,
      "An": 3728,
      "ĠtÃłng": 3729,
      "ĠcáºŃy": 3730,
      "ĠvÃ¡n": 3731,
      "May": 3732,
      "Ġnhan": 3733,
      "Ġghe": 3734,
      "Ġmáº¡i": 3735,
      "Ġmáº¡o": 3736,
      "Ġvinh": 3737,
      "Ġchuá»ĳi": 3738,
      "ĠthÃ¡ch": 3739,
      "Gáº§n": 3740,
      "Ġw": 3741,
      "ĠLuÃ¢n": 3742,
      "ĠgiÃ¡p": 3743,
      "ĠÄĲÃ¢y": 3744,
      ".ChÃłng": 3745,
      "ĩn": 3746,
      "Ġhá»ħ": 3747,
      "Ra": 3748,
      "ĠThÃ¢n": 3749,
      "ĠMá»Ļng": 3750,
      "nhÆ°ng": 3751,
      "ok": 3752,
      "ĠcÃ³c": 3753,
      "ĠtrÃºt": 3754,
      ";T": 3755,
      "DÃ¬": 3756,
      "ĠDiá»ĩm": 3757,
      "Ġlá»Ļng": 3758,
      "Ġkháº³ng": 3759,
      "ĠGiao": 3760,
      "Ġnáº£n": 3761,
      "ĠÄĳÅ©a": 3762,
      "ĠlÆ°á»¡ng": 3763,
      "ĠrÃ¡ng": 3764,
      "ĠthiÃªng": 3765,
      "Ġvá»©t": 3766,
      "ĠTrÃ¢n": 3767,
      "Ġcá»§i": 3768,
      "ĠtÃ¹ng": 3769,
      "ĠrÃ©t": 3770,
      "ĠcháºŃt": 3771,
      "Ġtá»·": 3772,
      "Nhá»Ŀ": 3773,
      "Ġlam": 3774,
      "ĠThiá»ĩn": 3775,
      "Ġná»ĳt": 3776,
      "Ġroi": 3777,
      "ĠÄĳÃª": 3778,
      "Ġháº»": 3779,
      "ĠngoÃ¡i": 3780,
      "Nguyá»ħn": 3781,
      "ĠdÅ©ng": 3782,
      "ĠPhá»§": 3783,
      "ĠBá»ĵ": 3784,
      "ĠKiá»ĩt": 3785,
      "ĠTháº±ng": 3786,
      "ĠÄĲÃ³": 3787,
      "Ġthe": 3788,
      "Ġthá»ı": 3789,
      "Ġláº³ng": 3790,
      "ĠbÃ©o": 3791,
      "Ġá»ĳc": 3792,
      "Ġráº£nh": 3793,
      "Ġdá»«a": 3794,
      "Ġtruy": 3795,
      "ĠÄĳua": 3796,
      "ĠlÃ¬": 3797,
      "ĠCÆ°á»Ŀng": 3798,
      "Ġbá»ķng": 3799,
      "Ráº¥t": 3800,
      "ĭt": 3801,
      "BÃ¬nh": 3802,
      "Æ°á»£m": 3803,
      "Ġtháº¥u": 3804,
      "ĠTÃ´": 3805,
      "ĠÄĳá»Ĺ": 3806,
      "ĠÃĿ": 3807,
      "ĠNha": 3808,
      "Ġsáº¯m": 3809,
      "ĠlÆ°á»Ľi": 3810,
      "Váº«n": 3811,
      "ĠtoÃł": 3812,
      "ĠchÃ³i": 3813,
      "ev": 3814,
      "Ġlá»Ļt": 3815,
      "Ġdáº·m": 3816,
      "ĠdÃ¬u": 3817,
      "ĠnhÃ¨": 3818,
      "con": 3819,
      "Ġquáº©n": 3820,
      "ĠCa": 3821,
      "ĠNÃły": 3822,
      "ĠNá»¯": 3823,
      "ĠKiáº¿m": 3824,
      "Ġloáº¡t": 3825,
      "Ġsen": 3826,
      "ĠtrÆ°ng": 3827,
      "ĠTá»ĳng": 3828,
      "Ġhá»Ĺn": 3829,
      "ĠbÃ¹n": 3830,
      "ĠLÄĥng": 3831,
      "ĠMao": 3832,
      "ĠĠĠĠĠĠĠ": 3833,
      "Ġtá»ķn": 3834,
      ".v": 3835,
      "LÃ²ng": 3836,
      "ĠtrÃ¨o": 3837,
      "ĠDiá»ĩp": 3838,
      "ĠgÃ¡y": 3839,
      "Khá»": 3840,
      "Ġmáº»": 3841,
      "Ġrá»¥t": 3842,
      "ĠÄĳáº¡c": 3843,
      "ĠgÃ¹": 3844,
      "ĠchÃ¨o": 3845,
      "Ġkhao": 3846,
      "ĠSt": 3847,
      "Tráº§n": 3848,
      "-p": 3849,
      "oáº¡n": 3850,
      "ĠÄĳoáº¡t": 3851,
      "ĠTáº¥t": 3852,
      "ĠbÃ¹ng": 3853,
      "Tay": 3854,
      "ĠCho": 3855,
      "ĠdÃ¡n": 3856,
      "ĠTháº¯ng": 3857,
      "Ġláº½o": 3858,
      "CÃ¡ch": 3859,
      "ĠchÆ°": 3860,
      "ĠHáº§u": 3861,
      "ĠÄĲoÃłn": 3862,
      "DÆ°á»Ľi": 3863,
      "ĠNi": 3864,
      "ĠgáºŃy": 3865,
      "Ġnhai": 3866,
      "Ġtá»ĭnh": 3867,
      "ĠbÃ¡u": 3868,
      "Ġhá»Ŀ": 3869,
      "ĠHáºŃu": 3870,
      "MÆ°á»Ŀi": 3871,
      "ĠloÃ¡ng": 3872,
      "Ġbá»ĵn": 3873,
      "Ġtrá»Ļn": 3874,
      "á»«": 3875,
      "Ġtá»§i": 3876,
      "ĠHiá»ĩp": 3877,
      "ĠNhiÃªn": 3878,
      "Ġchá»ķ": 3879,
      "Phá»": 3880,
      "ĠvÃ²": 3881,
      "Ġcháº§m": 3882,
      "ĠlÃ¡ch": 3883,
      "ĠnhÃ¡y": 3884,
      "ĠCháº³ng": 3885,
      "ĠÄĳáº½": 3886,
      "ĠÄĳá»£t": 3887,
      "Ġquáº£ng": 3888,
      "Ġbáº¥m": 3889,
      "ĠHá»ĵi": 3890,
      "ĠDá»": 3891,
      "má»Ļt": 3892,
      "ĠÄĳáº«m": 3893,
      "Ġkhoai": 3894,
      "Ġcháº¥n": 3895,
      "se": 3896,
      "ĠÄĳiá»ģm": 3897,
      "ĠtÃ´m": 3898,
      "ĠrÆ°á»Ľc": 3899,
      "ĠÄĳÃ£ng": 3900,
      "Ġnao": 3901,
      "ĠsÆ°á»Ŀn": 3902,
      "ĠHá»įc": 3903,
      "NgÆ°Æ¡i": 3904,
      "Ġnháº§m": 3905,
      "ĠCáº©m": 3906,
      "ĠkhÃ¡i": 3907,
      "Ġnháº¥c": 3908,
      "ĠvÃ¡y": 3909,
      "ĠgÃ³t": 3910,
      "ĠÄĳan": 3911,
      "Ġquáº¡t": 3912,
      "Ġphe": 3913,
      "Tháº£o": 3914,
      "ÄĤn": 3915,
      "ĠDuyÃªn": 3916,
      "ĠTrÃŃ": 3917,
      ".Hai": 3918,
      "CÄĥn": 3919,
      "ĠlÃ³t": 3920,
      "NgÃłi": 3921,
      "ĠtrÃłng": 3922,
      "ĠtoÃ¡t": 3923,
      "Ġnáº¯p": 3924,
      "TrÃ´ng": 3925,
      "Ġcáº¥u": 3926,
      "ĠbÃ¬": 3927,
      "Ġngáº¡o": 3928,
      "ĠkhÆ¡i": 3929,
      "Xe": 3930,
      "ĠvÃºt": 3931,
      "ĠÄĲÄĥng": 3932,
      "ĠNgÃły": 3933,
      "ĠcÃ¢m": 3934,
      "Ġtráº¡m": 3935,
      "Ġá»§ng": 3936,
      "Ġvong": 3937,
      "ka": 3938,
      "Ġkháº¥u": 3939,
      "arl": 3940,
      "ĠcÃły": 3941,
      "ich": 3942,
      "Ġkhá»ķng": 3943,
      ";u": 3944,
      "ĠCÃ¡m": 3945,
      "ĠMÃ´n": 3946,
      "Nay": 3947,
      "ĠchÃ²": 3948,
      "ĠcháºŃu": 3949,
      "Ġmá»ĭt": 3950,
      "Ġmáº¯m": 3951,
      "ara": 3952,
      "Ġcai": 3953,
      "Ġchá»Ļ": 3954,
      "MÃ¹a": 3955,
      "áº»o": 3956,
      ".Khi": 3957,
      "Ġráº§m": 3958,
      "ĠÄĲiá»ģn": 3959,
      "ĠmÃ³ng": 3960,
      "ĠngÃ¡n": 3961,
      "Ġthá»±": 3962,
      "ĠTu": 3963,
      "ĠtÃ´ng": 3964,
      "Ġnhá»įn": 3965,
      "©y": 3966,
      "Ġkáº½": 3967,
      "Ġráº¡p": 3968,
      "ĠtrÃ³i": 3969,
      "ĠchÃ¡t": 3970,
      "Kho": 3971,
      "og": 3972,
      "Ġcháº±m": 3973,
      "ĠthÃ¡m": 3974,
      "ĠLÃºc": 3975,
      "ĠgÃ£y": 3976,
      "±n": 3977,
      "Lá»Ŀi": 3978,
      "Ġtháº¯p": 3979,
      "Tá»Ľi": 3980,
      "ĠsuÃ½t": 3981,
      "Ġtháº¯m": 3982,
      "Ġnom": 3983,
      "ĠxÃ³a": 3984,
      "ĠNhu": 3985,
      "ĠmáºŃp": 3986,
      "ĠngÃ³ng": 3987,
      "Ġbá»ĭnh": 3988,
      "Ġrá»£n": 3989,
      "ThÆ°a": 3990,
      "ĠJohn": 3991,
      "Ġong": 3992,
      "ĠMáº«n": 3993,
      "ĠThÃ¹y": 3994,
      "Ġráº¡ng": 3995,
      "Ġkáº¹o": 3996,
      "ĠtuÃ´n": 3997,
      "Ġcá»§": 3998,
      "ĠThÆ°á»Ŀng": 3999,
      "Chi": 4000,
      "ĠnhÃ¡nh": 4001,
      "ĠChiÃªu": 4002,
      "Ľc": 4003,
      "ĠnhÃ³c": 4004,
      "Ġquáº¥y": 4005,
      "Dá»": 4006,
      "ĠlÃ³c": 4007,
      "ĠluÃ¢n": 4008,
      "Ġde": 4009,
      "VÃ¢ng": 4010,
      "ig": 4011,
      "ĠlÃ¡ng": 4012,
      "ĠrÆ°ng": 4013,
      "ĠTrá»ĭnh": 4014,
      "ĠbáºŃy": 4015,
      "Thá»©": 4016,
      "ÄĲá»©a": 4017,
      "ĠÄĳÃºc": 4018,
      "Ġváº§y": 4019,
      "Ġáº¤n": 4020,
      "Ġláº©n": 4021,
      "ÄĲÃ¡m": 4022,
      "Quan": 4023,
      "Ġrá»ĵng": 4024,
      "Ġpháº£": 4025,
      "Ġquáº§y": 4026,
      "Ġtháº©m": 4027,
      "ean": 4028,
      "±t": 4029,
      "Ġtáº£i": 4030,
      "Thiáº¿u": 4031,
      ".Sau": 4032,
      "ĠráºŃm": 4033,
      "kh": 4034,
      "įa": 4035,
      "ĠCam": 4036,
      "Ġnhá»±a": 4037,
      "Cá»¥": 4038,
      "Ġbáº»": 4039,
      "ĠBang": 4040,
      "ÄĲáº¥y": 4041,
      "ĠÄĲáº¿": 4042,
      "Ġngá»±": 4043,
      "Ġhá»ĳ": 4044,
      "ĠNÆ°Æ¡ng": 4045,
      "Báº£o": 4046,
      "ĠkhoÃ¡": 4047,
      "ĠÃĤm": 4048,
      "Ġthong": 4049,
      "ĠlÆ°á»£n": 4050,
      "VÃ¢n": 4051,
      "Ġphá»ĳi": 4052,
      "ĠÄĳáº¡m": 4053,
      "ĠcÃło": 4054,
      "uá»Ĺi": 4055,
      "ĠtÃº": 4056,
      "ĠvÃ£n": 4057,
      "Ġá»Ĵ": 4058,
      "Phi": 4059,
      "Ġtrinh": 4060,
      "Ġpháº³ng": 4061,
      "ĠThá»¥y": 4062,
      "Ġhá»ĳc": 4063,
      "ĠthÃ¡p": 4064,
      "Ġthuáº§n": 4065,
      "Ġráº§y": 4066,
      "Phong": 4067,
      "CÃłng": 4068,
      ";KhÃ´ng": 4069,
      "ĠhÃ£ng": 4070,
      "Ġdáº«u": 4071,
      "RiÃªng": 4072,
      "ĠkhÃ´i": 4073,
      "«m": 4074,
      "ĠÄĳe": 4075,
      "ĠViá»ħn": 4076,
      "Ġcá»£t": 4077,
      "Ġvá»¥ng": 4078,
      "Ġhá»§y": 4079,
      "Ġlá»Ńng": 4080,
      "Ġxuá»ĵng": 4081,
      "Ġranh": 4082,
      "Æ°á»Ŀm": 4083,
      "ĠÄĲá»ĵ": 4084,
      "Ġcá»Ļ": 4085,
      "Ġváº¡t": 4086,
      "Ġthuáº¿": 4087,
      "HÆ°Æ¡ng": 4088,
      "HÃłng": 4089,
      "NÃły": 4090,
      "ĠÄĳáº¯n": 4091,
      "Ġchinh": 4092,
      "Ġhiu": 4093,
      "da": 4094,
      "ris": 4095,
      "Ġváº·n": 4096,
      "ĠgÅ©i": 4097,
      "Ġká»ģ": 4098,
      "ath": 4099,
      "Thá»ĭ": 4100,
      "Ġ:âĢĵ": 4101,
      "ĠngÃ´": 4102,
      "Ġkhiá»ĥn": 4103,
      "Ġuáº¥t": 4104,
      "Trung": 4105,
      "Ban": 4106,
      "Ġmá»¡": 4107,
      "ĠNa": 4108,
      "á»ª": 4109,
      "RÃµ": 4110,
      "Ġná»¡": 4111,
      "Ġrá»Ĺng": 4112,
      "ill": 4113,
      "Ġnháº¥p": 4114,
      "de": 4115,
      "ĠnháºŃu": 4116,
      "ĠrÃ¡o": 4117,
      "ĠÃĬ": 4118,
      "Cáº£m": 4119,
      "Ġmáº·n": 4120,
      "GiÃ¡": 4121,
      "ĠTá»ĳ": 4122,
      "ĠcÃ²": 4123,
      "ĠdÆ°á»£c": 4124,
      "Háº¡nh": 4125,
      "ĠÃĶi": 4126,
      "Chu": 4127,
      "ĠPhÃ¡t": 4128,
      "Ġhiáº¿p": 4129,
      "ĠnhÃ´": 4130,
      "ĠnhÃŃu": 4131,
      "ĠÄĳáºŃy": 4132,
      "Ġmáº¡": 4133,
      "Ġxiáº¿t": 4134,
      "VÄ©nh": 4135,
      "Ġrá»§a": 4136,
      "!!": 4137,
      "ĠLe": 4138,
      "Ġá»§y": 4139,
      "Ġkiá»ģu": 4140,
      "Ġnháº¥n": 4141,
      "ĠchoÃ¡ng": 4142,
      "ert": 4143,
      "PhÃŃa": 4144,
      "Ġgay": 4145,
      "one": 4146,
      "Ġxáº£": 4147,
      "Ġtháº¡ch": 4148,
      "ÃĤ": 4149,
      "ĠHay": 4150,
      "Vá»ĭ": 4151,
      "ĠkÃ¬": 4152,
      "ĠrÃ¬": 4153,
      "ĠTÃ´ng": 4154,
      "ĠHáº£o": 4155,
      "Ġláº¹": 4156,
      "ĠTo": 4157,
      "ĠCáº§n": 4158,
      "ĠThá»ĭnh": 4159,
      "ĠÄĳiá»ĩp": 4160,
      "Ġxáº¡": 4161,
      "ĠNhung": 4162,
      "ĠSau": 4163,
      "Ġkáº»o": 4164,
      "ĠmÆ°á»Ľn": 4165,
      "Ġhuáº¥n": 4166,
      "ĠÄĳá»Ŀ": 4167,
      "uá»µ": 4168,
      "ĠParis": 4169,
      "Ġcá»Ĺ": 4170,
      "Ġbá»įt": 4171,
      ".N": 4172,
      "DÃ¢n": 4173,
      "cÃ´": 4174,
      "ĠLáº¡t": 4175,
      "ĠMÃ¢y": 4176,
      "Ġqui": 4177,
      ";l": 4178,
      "ĠrÃłnh": 4179,
      "Ġhiáº¿n": 4180,
      "ĠsÃ³i": 4181,
      "Ġtanh": 4182,
      "ĠÄĳÃ¹ng": 4183,
      "Ġná»ĥ": 4184,
      "ĠOanh": 4185,
      "Háº¡": 4186,
      "Ġbuá»ĳt": 4187,
      "ĠÄĳá»įng": 4188,
      "ĠTáº¥n": 4189,
      "ÄĲÆ°á»Ŀng": 4190,
      "ĠÄĳáº³ng": 4191,
      "Ġrá»ĵ": 4192,
      "Ká»ĥ": 4193,
      "ĠtÃ³m": 4194,
      "Ġkháº£o": 4195,
      "ĠDÃ¢n": 4196,
      "ĠmÄĥng": 4197,
      "Ġbáº¡t": 4198,
      "Ġsá»Ńng": 4199,
      "Ġdinh": 4200,
      "ĠMÆ°á»Ŀi": 4201,
      "ĠThiá»ĩu": 4202,
      "ĠsÆ°a": 4203,
      "ÃĿ": 4204,
      "Ġchá»ĵm": 4205,
      "ĠTháº¥t": 4206,
      "ĠtráºŃt": 4207,
      "-r": 4208,
      "ĠvÃ¹i": 4209,
      "ĠCÆ°Æ¡ng": 4210,
      "Ġxáº¯n": 4211,
      "Ġbá»ī": 4212,
      "Ġcháº¡p": 4213,
      "Ġbá»ĭt": 4214,
      "Bá»ĳn": 4215,
      "Æ¯": 4216,
      "ĠmÃ¢m": 4217,
      "Ġsi": 4218,
      "Ġpho": 4219,
      "VÃłi": 4220,
      "ĠnÃ©": 4221,
      "ĠThá»į": 4222,
      "ick": 4223,
      ".KhÃ´ng": 4224,
      "ĠSong": 4225,
      "ĠnghÃª": 4226,
      "ff": 4227,
      "Ġluyáº¿n": 4228,
      "Ġhiá»ĥn": 4229,
      "Linh": 4230,
      "ĠngÃłng": 4231,
      "ĠMá»Ļc": 4232,
      "ĠrÃ²ng": 4233,
      "ĠcÆ°ng": 4234,
      "Ġven": 4235,
      "ĠthÃ©p": 4236,
      "ĠnÃ¡o": 4237,
      "ĠxÄĥng": 4238,
      "-g": 4239,
      "Ġngáº«m": 4240,
      "Ġphá»¥ng": 4241,
      "Ġvoi": 4242,
      "Ġhá»Ļt": 4243,
      "ĠÄĳáº¯t": 4244,
      "Ġdang": 4245,
      "ĠnÃºt": 4246,
      "áº¥ng": 4247,
      "ĠBáº¥t": 4248,
      "Háº£i": 4249,
      "áº¤": 4250,
      "ew": 4251,
      "Tá»¥i": 4252,
      "Ġtá»ĵi": 4253,
      "Ġvá»¥n": 4254,
      "ĠÃĲá»©c": 4255,
      "Ġláº¯p": 4256,
      "Ġoai": 4257,
      ";a": 4258,
      "Ġsá»§a": 4259,
      "īa": 4260,
      "ĠnhÃ£n": 4261,
      "ĠkhoÄĥn": 4262,
      "ĠTÃ¬nh": 4263,
      "Ġsá»±c": 4264,
      "ĠlÃ¬nh": 4265,
      "Ġmáº£i": 4266,
      "ĠTinh": 4267,
      "ĠbÃ¡ch": 4268,
      "Ġcá»ĳi": 4269,
      "ĠnÃŃu": 4270,
      "ĠtrÆ¡n": 4271,
      ";Em": 4272,
      "Ġká»µ": 4273,
      "ĠÃºp": 4274,
      "ĠÄĲinh": 4275,
      "Ġkem": 4276,
      "ĠbÄĥn": 4277,
      "Ġthá»ĳi": 4278,
      "Ġgiá»ı": 4279,
      "ĠÄĲá»Ĺ": 4280,
      "ĠChÃ¡nh": 4281,
      "ĠUyá»ĥn": 4282,
      "Ġnguyá»ģn": 4283,
      "ĠBáº£n": 4284,
      "NÃªn": 4285,
      "Ġtá»ĳng": 4286,
      "Ġvay": 4287,
      "ĠrÃ¨": 4288,
      "Báº±ng": 4289,
      "Ġtáº£n": 4290,
      "ali": 4291,
      "Ġháº»m": 4292,
      "Ġhá»¥t": 4293,
      "ĠLÃł": 4294,
      "LÃ¢u": 4295,
      "Ġchuá»ĵng": 4296,
      "Ġtoa": 4297,
      "Kháº": 4298,
      "Ġlá»Ł": 4299,
      "Ġá»§": 4300,
      "Ġthá»§ng": 4301,
      "Chá»§": 4302,
      "Ġthuá»·": 4303,
      "áº³n": 4304,
      ".NÃłng": 4305,
      "ÄĲÃłn": 4306,
      "ĠKiÃªn": 4307,
      "ĠgÃ¬n": 4308,
      "ĠTá»ķ": 4309,
      "ĠxÃło": 4310,
      "ĠÆ°ng": 4311,
      "ĠLang": 4312,
      "Ġphá»Ł": 4313,
      "MÃ£i": 4314,
      "Ġxi": 4315,
      "ĠhÃ¡n": 4316,
      "ĠMÃ¡": 4317,
      "ĠchÃ¹m": 4318,
      "ĠrÆ¡m": 4319,
      "Ġtháº£y": 4320,
      "Ġchá»ĵn": 4321,
      "Ġmáº©u": 4322,
      "ĠLá»£i": 4323,
      "ĠCÃ¡ch": 4324,
      "VÃ´": 4325,
      "Ġuá»ĳn": 4326,
      "Ġhá»ķng": 4327,
      "ĠkhiÃªu": 4328,
      ";g": 4329,
      "Ġcá»¥t": 4330,
      "Má»¹": 4331,
      "ĠBÃ¡ch": 4332,
      "Ġgiáº¿ng": 4333,
      "ge": 4334,
      "DÄ©": 4335,
      "Ġnháº¿ch": 4336,
      "Ġbuá»Ļt": 4337,
      "st": 4338,
      "ĠnhÃ³i": 4339,
      "ĠChiáº¿n": 4340,
      "Ġrá»Ĺi": 4341,
      "ĠthÃło": 4342,
      "ut": 4343,
      "ĠÄĲÃłi": 4344,
      ";p": 4345,
      "ThÃ¢n": 4346,
      "há»ĩ": 4347,
      "ĠxÄĥm": 4348,
      "TrÃ¡i": 4349,
      "ĠnhÃŃch": 4350,
      "ĠLÃ¢u": 4351,
      "Ġhoáº¡": 4352,
      "Ġphá»ıng": 4353,
      "ow": 4354,
      "ĠcÃ¡u": 4355,
      "!...": 4356,
      "Cá»": 4357,
      "Ġláº£": 4358,
      "ToÃłn": 4359,
      "BÃłn": 4360,
      "Ġninh": 4361,
      "Ġ?&": 4362,
      "ĠdÃª": 4363,
      "ĠhÃ¢n": 4364,
      "ĠÄĳoan": 4365,
      "iá»ģng": 4366,
      "ĠCá»©": 4367,
      "ĠSai": 4368,
      "ÄĲá»Ŀi": 4369,
      "ĠKhÆ°Æ¡ng": 4370,
      "Ġcáº±m": 4371,
      "ĠTiá»ģn": 4372,
      "Dáº¡": 4373,
      "ĠtrÃ¡": 4374,
      "Nghi": 4375,
      "ĠbÆ°á»Ľm": 4376,
      "ĠnhÃ©t": 4377,
      "Ġsáº§m": 4378,
      "ĠCáº£nh": 4379,
      "Ġá»©a": 4380,
      "ib": 4381,
      "ĠÄĳiá»ģn": 4382,
      "ÄĲá»©ng": 4383,
      "Ġchao": 4384,
      "Ġgiáº·t": 4385,
      ",&": 4386,
      ".LÃ£o": 4387,
      "ĠbÃºa": 4388,
      "ĠÃģnh": 4389,
      "Ġkáº¹t": 4390,
      "ĠLÃ´i": 4391,
      "Ġváº¡ch": 4392,
      "ĠÆ¡": 4393,
      "Hiá»ĩn": 4394,
      "ĠbÃ³c": 4395,
      "Chá»ĵng": 4396,
      "Ġung": 4397,
      "ĠHáº¯n": 4398,
      "Ġcháº£i": 4399,
      "ĠcÃłi": 4400,
      "ĠlÃ¡o": 4401,
      "Pháº§n": 4402,
      "ĠBÃ©": 4403,
      "ĠhÄĥm": 4404,
      "Ġthá»ģm": 4405,
      "ĠThÃŃch": 4406,
      "ĠdÃ¢m": 4407,
      "ĠHÃłnh": 4408,
      "ĠXÃ´": 4409,
      ".CÃ³": 4410,
      "Ġkhoáº£nh": 4411,
      "ĠrÃº": 4412,
      "Ġhoáº¡i": 4413,
      "ĠthiÃªu": 4414,
      "ĠPhÃ¹": 4415,
      "Ġnhang": 4416,
      "á»ķn": 4417,
      "ĠbÃ©n": 4418,
      "Ġráº£i": 4419,
      "Tho": 4420,
      "art": 4421,
      "Ġnháº½": 4422,
      "NÆ¡i": 4423,
      "ĠdÃłn": 4424,
      "ĠdÄĥm": 4425,
      "Ġnhá»©t": 4426,
      "ĠtrÆ°á»£t": 4427,
      "ma": 4428,
      "ĠÄĲÃ£": 4429,
      "ĠKhá»ķ": 4430,
      "Ġnáº¿n": 4431,
      "Há»ĵng": 4432,
      "__": 4433,
      "ĠMáº¡c": 4434,
      "Ġ!&": 4435,
      "Ġliá»ħu": 4436,
      "ĠvÆ°á»Ľng": 4437,
      "ĠvÃ£ng": 4438,
      "Ġnghiá»ĩt": 4439,
      "II": 4440,
      "Ġnhiá»ħm": 4441,
      "Ġcua": 4442,
      "ĠpháºŃt": 4443,
      "Ġrong": 4444,
      "ĠrÃ¬nh": 4445,
      "ĠhÃŃ": 4446,
      "Ġpháº¯t": 4447,
      "ĠHÃ£y": 4448,
      "Ġviáº¿ng": 4449,
      "Ġ?âĪĴ": 4450,
      "ik": 4451,
      "ĠFran": 4452,
      ".LÃºc": 4453,
      "Bá»¯a": 4454,
      "ĠMÃ´ng": 4455,
      "ĠÄĲiá»ĩp": 4456,
      "ĠTriá»ģu": 4457,
      "op": 4458,
      ".Nhá»¯ng": 4459,
      "ĠngÃł": 4460,
      "ĠNghe": 4461,
      "ĠchÃ³t": 4462,
      "dy": 4463,
      "ĠtuÃ¢n": 4464,
      "ec": 4465,
      "Ġ--": 4466,
      "ngÆ°á»Ŀi": 4467,
      "ĠnhÃŃ": 4468,
      "ĠsÃ©t": 4469,
      "ĠsÆ°á»Łi": 4470,
      "Ġbáº«y": 4471,
      "Ġthá»ĭnh": 4472,
      "áº¢": 4473,
      "Ġcáº±n": 4474,
      "xi": 4475,
      "ĠlÃ©o": 4476,
      "DÆ°á»Ŀng": 4477,
      "MÆ°a": 4478,
      "Ġgieo": 4479,
      "ĠHoan": 4480,
      "Ġngáº¡t": 4481,
      "ThÆ°á»Ŀng": 4482,
      "ĠdÃ©p": 4483,
      "Ġcháº¯p": 4484,
      "cháº": 4485,
      "Ġláº·p": 4486,
      "ĠnÃ©p": 4487,
      "¢y": 4488,
      "ĠÄĳÃ¨o": 4489,
      "ĠÄĲang": 4490,
      "Ġthá»ī": 4491,
      "ĠLáºŃp": 4492,
      "ĠKhÃ´i": 4493,
      "Ġrá»©t": 4494,
      "Ġná»ĩ": 4495,
      "PhÃ¡": 4496,
      "Sá»ĳ": 4497,
      "ĠNgÅ©": 4498,
      "Ġtuá»ĩ": 4499,
      "Uy": 4500,
      "ĠnÃªu": 4501,
      "ĠphiÃªu": 4502,
      "ĠhÃłn": 4503,
      ";Con": 4504,
      "uá»ĵn": 4505,
      ";o": 4506,
      "Ġxá»ĭ": 4507,
      "Viá»ĩt": 4508,
      "Ġláº«y": 4509,
      "ĠChÃłng": 4510,
      "ĠbÃºp": 4511,
      "ĠrÆ°á»¡i": 4512,
      "Ġtháº»": 4513,
      "Ġtuá»Ļt": 4514,
      "Ġhoáº¡n": 4515,
      "VÆ°Æ¡ng": 4516,
      "Ġnga": 4517,
      "ĠhÃ©o": 4518,
      "ĠZ": 4519,
      "ir": 4520,
      "Ġrá»ħ": 4521,
      "ViÃªn": 4522,
      "Ġnhá»£t": 4523,
      "Tá»Ļi": 4524,
      "ĠSÃ¡ng": 4525,
      "ThÃºy": 4526,
      "man": 4527,
      "ĠquÄĥng": 4528,
      "Ġphiáº¿u": 4529,
      "ĠQuáº¿": 4530,
      "ĠthÃªu": 4531,
      "ver": 4532,
      "ĠbÃ¡i": 4533,
      "Ġháº±n": 4534,
      "ĠtÆ¡i": 4535,
      "ĠÄĳáº·n": 4536,
      "Ġláº£ng": 4537,
      "Ġphá»ĵng": 4538,
      "Ġchuá»Ĺi": 4539,
      "Ġngá»¥": 4540,
      "ĠHÃ³a": 4541,
      "ĠTháº¯m": 4542,
      "Ġmá»Ļc": 4543,
      "ĭu": 4544,
      "ĠkhÃ¹ng": 4545,
      "ĠgÃ¢n": 4546,
      "ĠcÃºc": 4547,
      "Quá»ĳc": 4548,
      "Ġse": 4549,
      "ĠcÃ´i": 4550,
      "Ġle": 4551,
      "ĠdÆ°a": 4552,
      "all": 4553,
      "¡i": 4554,
      "Káº»": 4555,
      "Ġáº¥u": 4556,
      "Ġsan": 4557,
      ",âĢĿ": 4558,
      "ĠmÃŃm": 4559,
      "Vua": 4560,
      "Ġtuyá»ĥn": 4561,
      "Ġquáº¥t": 4562,
      "-d": 4563,
      "ĠQuÃ¡n": 4564,
      "Ġloa": 4565,
      "ĠHÃłng": 4566,
      "NhÃ": 4567,
      "Ġngá»Ńi": 4568,
      "Ġmáº£ng": 4569,
      "ĠhÆ°u": 4570,
      "ĠViá»ĩn": 4571,
      "ĠDao": 4572,
      "ĠCÃ¢u": 4573,
      "ĠSh": 4574,
      "ĠgiÃ¡n": 4575,
      "ĠÆł": 4576,
      "na": 4577,
      "Ġkáº¹p": 4578,
      "ĠNháº¡c": 4579,
      "Ġcá»ĳng": 4580,
      "Ġquáº¡": 4581,
      "Ġlá»©a": 4582,
      "ĠLáº¡i": 4583,
      "Báº¡ch": 4584,
      "á»Ŀ": 4585,
      "ĠÄĳu": 4586,
      "Ġnan": 4587,
      "ĠChÆ°a": 4588,
      "ĠchiÃªm": 4589,
      "Â»": 4590,
      "Ġro": 4591,
      "Ġrá»ĳt": 4592,
      "ĠdÃ¹m": 4593,
      "ĠThá»ĳng": 4594,
      "Lan": 4595,
      "Ġbáº·t": 4596,
      "ĠsáºŃp": 4597,
      "ĠPhÃ¹ng": 4598,
      "á»ģ": 4599,
      "ess": 4600,
      "CÃ¹ng": 4601,
      "ĠbÃ¢ng": 4602,
      "Ġbá»«a": 4603,
      ".Rá»ĵi": 4604,
      "ĠCu": 4605,
      "ĠvÃłnh": 4606,
      "Má»¥": 4607,
      "BÃ©": 4608,
      "ĠchÆ°á»Ľc": 4609,
      "ĠHá»į": 4610,
      "ore": 4611,
      "Ġváº§n": 4612,
      "SÆ°": 4613,
      "Ġcuá»ĳc": 4614,
      "ĠchÃł": 4615,
      "Ġá»¦": 4616,
      "ve": 4617,
      "ĠsÃºc": 4618,
      "ca": 4619,
      "Ġbá»Ļc": 4620,
      "Ġbáº§m": 4621,
      "Ġgiáº§y": 4622,
      "Ġsá»«ng": 4623,
      "ĠvÃ¡ng": 4624,
      "ĠngÃ¹i": 4625,
      "ĠphÆ°á»Ľc": 4626,
      "ĠVá»¹": 4627,
      "ĠgiÄĥng": 4628,
      "Ġlá»įc": 4629,
      "Ġá»«": 4630,
      "Ġnháº¹n": 4631,
      "ĠbÆ°á»Ľng": 4632,
      "ĠHá»ķ": 4633,
      "ĠphÃło": 4634,
      "Gáº·p": 4635,
      "Ġnghen": 4636,
      "ThÃ¡ng": 4637,
      "Ġsáº·c": 4638,
      "Ġdá»Ĺi": 4639,
      "Duy": 4640,
      "Ġtá»ĭ": 4641,
      "ĠChÃŃn": 4642,
      "CÃ¢y": 4643,
      "ĠThy": 4644,
      "Ġna": 4645,
      "ĠghÃ¬": 4646,
      "ĠÃ³ng": 4647,
      "ĠngÃ¹ng": 4648,
      "Ġtráº¯c": 4649,
      "Ġdáº¡n": 4650,
      "Ġdai": 4651,
      "KhÃ³": 4652,
      "ĠBiáº¿t": 4653,
      "ĠtÃºm": 4654,
      "Ġcáº©m": 4655,
      "ĠnhÃłn": 4656,
      "NghÄ©a": 4657,
      "Huy": 4658,
      "eter": 4659,
      "Ġcá»įp": 4660,
      "ĠvÃ³c": 4661,
      "âĢ¦âĢĿ": 4662,
      "ĠChÃło": 4663,
      "vi": 4664,
      "ĠphÆ°á»Ŀng": 4665,
      "Ġsá»¹": 4666,
      "¹o": 4667,
      "ĠÄĳiáº¿m": 4668,
      "ĠIn": 4669,
      "ley": 4670,
      "Ġkhá»Ŀ": 4671,
      "Ġbáº©y": 4672,
      "ĠvÃµng": 4673,
      "Ġtáº·c": 4674,
      "ĠxÃłi": 4675,
      "¡o": 4676,
      "ĠgiÃ²ng": 4677,
      "Háº¿t": 4678,
      "ina": 4679,
      "ĠSá»Ń": 4680,
      "ĠÃª": 4681,
      "ĠHÃło": 4682,
      "Ġhoay": 4683,
      "ĠgiÃ¡ng": 4684,
      "Ġngá»Ľ": 4685,
      "ĠAr": 4686,
      "ĠchÆ°ng": 4687,
      "ĠCar": 4688,
      "Ġchá»Ŀn": 4689,
      "uá»Ŀi": 4690,
      "ĠNhá»ı": 4691,
      "Báº¥y": 4692,
      "Ġnáº¡t": 4693,
      "ĠsÃ¹ng": 4694,
      "ĠâĢĿ": 4695,
      "ĠÄĲa": 4696,
      "¨n": 4697,
      "Ġgiá»¡n": 4698,
      "Quá»³nh": 4699,
      "Ġnháº±n": 4700,
      "Ġgáº¥u": 4701,
      "chá»": 4702,
      "Láº½": 4703,
      "Ġtá»Ł": 4704,
      "TrÆ°Æ¡ng": 4705,
      "ĠĠĠĠĠĠĠĠĠĠĠĠĠĠĠĠĠĠĠĠĠĠĠĠĠĠĠĠĠĠĠĠ": 4706,
      "Ġcá»±u": 4707,
      "ħu": 4708,
      ".Ng": 4709,
      "µng": 4710,
      "ack": 4711,
      "Ġpháº«n": 4712,
      "ĠHuá»³nh": 4713,
      "Xem": 4714,
      "?âĪĴ": 4715,
      "ud": 4716,
      "ant": 4717,
      "ĠÄĲÃ´": 4718,
      "ĠÄĲá»Ļc": 4719,
      "Ġná»Ļp": 4720,
      "Mi": 4721,
      "gon": 4722,
      "ĠHuyÃªn": 4723,
      "ĠhÃ£m": 4724,
      "Báº£n": 4725,
      "ĠHiá»ĥn": 4726,
      "Ġngá»¥m": 4727,
      "TrÆ°á»Ŀng": 4728,
      "ĠmÃ¹ng": 4729,
      "ĠphÃ¡ch": 4730,
      "ĠNhÆ°á»£c": 4731,
      "ĠBÃ¡t": 4732,
      "CÃ¡nh": 4733,
      "Nhá»ı": 4734,
      "Cháº£": 4735,
      "ĠMon": 4736,
      "ĠKhuÃª": 4737,
      "ĠThÄĥng": 4738,
      "Ġcáº¡o": 4739,
      "Ġxui": 4740,
      "Ná»Ĺi": 4741,
      "Xong": 4742,
      "Ġláº¥n": 4743,
      "ĠVá»ģ": 4744,
      "ĠkÃ¬m": 4745,
      "ĠGiÃ¡ng": 4746,
      "ĠvÃ¡": 4747,
      "Ġhá»Ľn": 4748,
      "Ġpháº¿": 4749,
      "ĠHarry": 4750,
      "Ġ;": 4751,
      "Ġhao": 4752,
      "ĠquÆ¡": 4753,
      "ĠngoÃ£n": 4754,
      "ĠÄĳá»Ļn": 4755,
      "Khoáº£ng": 4756,
      "Ġngá»ı": 4757,
      "ĠTÆ°á»Ľng": 4758,
      "Ġlá»«ng": 4759,
      "Ġngá»§i": 4760,
      "ĠÄĳÃ³a": 4761,
      "lin": 4762,
      "Ġdáº§y": 4763,
      "ĠKá»µ": 4764,
      "Ġtrá»įc": 4765,
      "ĠxÆ°á»Łng": 4766,
      "ĠThá»Ŀi": 4767,
      "Ġnhá»ĳt": 4768,
      "ĠthÃły": 4769,
      "ĠvÃ²i": 4770,
      "ĠquáºŃt": 4771,
      "TÃŃnh": 4772,
      "Ġlá»¯ng": 4773,
      "ĠcÆ°á»¡i": 4774,
      "...âĢĿ": 4775,
      "Ġtrá»ķ": 4776,
      "ĠvÆ¡i": 4777,
      "Ġgáº£": 4778,
      "ĠkhÃ¡n": 4779,
      "Thá»§y": 4780,
      "Ġkhá»ĳc": 4781,
      "Ġcá»«u": 4782,
      "ĠSam": 4783,
      "TháºŃm": 4784,
      "LÃ¢m": 4785,
      "Ġtrá»ı": 4786,
      "Ġthuáº«n": 4787,
      "Ã²e": 4788,
      "ane": 4789,
      "est": 4790,
      "ĠThuáº§n": 4791,
      "Ġchuyá»ģn": 4792,
      "Ġvá»ĩt": 4793,
      "ĠHá»ĵn": 4794,
      "Ġhoi": 4795,
      "Ġáº¢": 4796,
      "uch": 4797,
      "Ġloay": 4798,
      "ĠhÃ³t": 4799,
      ".NÃ³i": 4800,
      "LÃª": 4801,
      "pp": 4802,
      "Äĳi": 4803,
      "Ġsiáº¿t": 4804,
      "Ġrá»§i": 4805,
      "ĠÃºng": 4806,
      "ĠkhÃłn": 4807,
      "Ġtro": 4808,
      "Ġtrá»¥c": 4809,
      "ha": 4810,
      "Ġá»ĵ": 4811,
      "ĠlÆ°á»Ŀng": 4812,
      "Ġlá»ĭ": 4813,
      "DÆ°Æ¡ng": 4814,
      "ÂŃ": 4815,
      "Ġlia": 4816,
      "ĠVá»ĩ": 4817,
      "ĠTrÆ°á»Łng": 4818,
      "ĠMáº¥y": 4819,
      "ĠTÆ°á»Łng": 4820,
      "ĠHáº¡o": 4821,
      "ĠbÃªnh": 4822,
      "Ġgáº±n": 4823,
      "ĠBáº¡n": 4824,
      "ĠÄĳÃłm": 4825,
      "ĠgÆ°Æ¡m": 4826,
      "ĠmÃłi": 4827,
      "Yáº¿n": 4828,
      "ĠnhÆ¡n": 4829,
      "ĠnhÃµm": 4830,
      "Chá»«ng": 4831,
      "Tiá»ģn": 4832,
      "BÃłi": 4833,
      "ĠlÃ¬a": 4834,
      "ĠNgá»": 4835,
      "ĠvÃ¡i": 4836,
      "Æ¡ng": 4837,
      "ÄĲÃ¢u": 4838,
      "Ġláº¥m": 4839,
      "ĠÄĳiÃªu": 4840,
      "ĠLi": 4841,
      "ĠTrÃł": 4842,
      "Ġváº§ng": 4843,
      "âĢ¦.": 4844,
      "á»Ľi": 4845,
      "Ġluá»ĳng": 4846,
      "Tháº§n": 4847,
      "Ġkhuyáº¿n": 4848,
      "Trang": 4849,
      ";CÃ³": 4850,
      "our": 4851,
      "ĠkhiÃªng": 4852,
      "MÃ¹i": 4853,
      "ĠngÆ°": 4854,
      "Hoáº·c": 4855,
      "Ġlon": 4856,
      "ĠtÃŃa": 4857,
      "ĠPhá»ķ": 4858,
      ".Tá»«": 4859,
      "Ġmiá»ĩt": 4860,
      "Ġngáº¥m": 4861,
      "ĠBao": 4862,
      "ord": 4863,
      "ĠÄĳam": 4864,
      "Ġnáº¿t": 4865,
      "ĠnÃłi": 4866,
      "ÄĲá»©c": 4867,
      "¹t": 4868,
      "Ġtráº§u": 4869,
      "cho": 4870,
      "io": 4871,
      "HoÃłi": 4872,
      "ĠmÃ¢u": 4873,
      "ĠrÃ²m": 4874,
      "ĠkhiÃªm": 4875,
      "ĠMáº·c": 4876,
      "ĠtrÃŃch": 4877,
      "ĠquÃłng": 4878,
      "Ġtá»įa": 4879,
      "ĠTrÆ°á»Ľc": 4880,
      "Ġtá»§m": 4881,
      "ĠDÃ¬": 4882,
      "Ġváº³ng": 4883,
      "Ġkhuyáº¿t": 4884,
      "ĠVN": 4885,
      "ĠSu": 4886,
      "Tá»Ľ": 4887,
      ";M": 4888,
      "Ġtá»īm": 4889,
      "ier": 4890,
      "ĠÄĲáº·ng": 4891,
      "ĠKhÃ": 4892,
      "LiÃªn": 4893,
      "ĠÂ»": 4894,
      "Tui": 4895,
      "ĠPhÃ³": 4896,
      "ĠnhÃ³": 4897,
      "Ġthung": 4898,
      "ĠThoa": 4899,
      "á»ı": 4900,
      "ĠliÃªng": 4901,
      "á»Ľc": 4902,
      "Ġsáº¥m": 4903,
      "ĠkÃŃ": 4904,
      "Ġtáº§n": 4905,
      "ĠÃĲáº¡i": 4906,
      "ĠlÆ°á»Ŀi": 4907,
      "ĠBá»Ļi": 4908,
      "ĠÄĲiá»ģu": 4909,
      "ĠCáº§u": 4910,
      "Láº¥y": 4911,
      "ĠnhÆ°á»£c": 4912,
      "ĠxoÃ¡y": 4913,
      "ĠBiÃªn": 4914,
      "Ġphen": 4915,
      ".Tiá»ĥu": 4916,
      "ĠcÃ²i": 4917,
      "Ġkhoang": 4918,
      "ĠPhÃ²ng": 4919,
      "ĠbÃ´i": 4920,
      "Ġnháº¡y": 4921,
      "Ġxáº¥p": 4922,
      "Ġvá»Ľt": 4923,
      "ĠTiáº¿ng": 4924,
      "ĠKhai": 4925,
      "KhuÃ´n": 4926,
      "ĠgiÃ²": 4927,
      "Ġnghiá»ģn": 4928,
      "ĠdÆ¡": 4929,
      "Ġnghiá»ĩn": 4930,
      "ÄĲá»ĵ": 4931,
      "ĠhÃ²m": 4932,
      "ĠáºŃp": 4933,
      "Ġchá»ĳt": 4934,
      "ana": 4935,
      "ĠchÃ¹i": 4936,
      "ĠCháº¥n": 4937,
      "Ġtá»Łm": 4938,
      "ĠTháºŃp": 4939,
      "ĠNghiÃªm": 4940,
      "ĠKháº£": 4941,
      "KhÃ¡ch": 4942,
      "ĠTuá»ĩ": 4943,
      "Bá»ĭ": 4944,
      "Ġsá»ıi": 4945,
      "Ġbá»ĭch": 4946,
      "ÃĬ": 4947,
      "aw": 4948,
      "ĠÄĳá»ĳn": 4949,
      "ĠchÆ°á»Ľng": 4950,
      "ĠHoÃł": 4951,
      "Chá»Ŀ": 4952,
      "ĠlÅ©ng": 4953,
      "ĠthÃ¢u": 4954,
      "ĠnÃ³c": 4955,
      "ĠThá»ķ": 4956,
      "ĠTÃł": 4957,
      "ĠCÃ´n": 4958,
      "Ġchuá»Ļng": 4959,
      "Ġngá»Ŀi": 4960,
      "Ġloang": 4961,
      "Ġnáº¥p": 4962,
      "Ġchá»±c": 4963,
      "Ġruá»ĵi": 4964,
      "Ġtru": 4965,
      "ĠBr": 4966,
      "SÃ¡u": 4967,
      "TÆ°": 4968,
      "Ġ....": 4969,
      "á»±u": 4970,
      "Ġmá»ĭn": 4971,
      "Ġnguyá»ĩt": 4972,
      "ĠNew": 4973,
      "Ġgiá»ħu": 4974,
      "ĠhÃª": 4975,
      "TÆ°á»Łng": 4976,
      "Tuáº¥n": 4977,
      "âĢ¦-": 4978,
      ";H": 4979,
      "Sinh": 4980,
      "ĠÄĳÃŃnh": 4981,
      "Ġnhe": 4982,
      "ell": 4983,
      "--------": 4984,
      "ĠlÃ³ng": 4985,
      "ĠTheo": 4986,
      "Ġthoáº£": 4987,
      "ey": 4988,
      "Ġtháº©n": 4989,
      "ĠHiá»ĥu": 4990,
      "Ġkhan": 4991,
      ";s": 4992,
      "alin": 4993,
      "á»Ĵ": 4994,
      ";C": 4995,
      "KhÃ¡nh": 4996,
      "Ġluá»Ļc": 4997,
      "ĠÄĲáº§u": 4998,
      "ĠThiá»ģn": 4999,
      "Ġbá»Ŀi": 5000,
      "Ġmá»īa": 5001,
      "ass": 5002,
      "ĠnguÃ´i": 5003,
      "ĠquáºŃy": 5004,
      "Ã¹y": 5005,
      "ĠÄĳá»ģm": 5006,
      "ThÆ°": 5007,
      "Ġkhanh": 5008,
      "Ġdá»Ŀi": 5009,
      "Chá»Ĺ": 5010,
      "Ġtrá»¯": 5011,
      "ĠdÃ²m": 5012,
      "ĠNghá»ĩ": 5013,
      "ĠvÃ²m": 5014,
      "Ã©c": 5015,
      "Ġcuáº£": 5016,
      "mÃł": 5017,
      "Ġháº¯c": 5018,
      "Ġhá»ī": 5019,
      "?TÃ´i": 5020,
      "ĠlÃŃu": 5021,
      "ĠtrÄ©u": 5022,
      "Ġchanh": 5023,
      "ain": 5024,
      "ĠTháº©m": 5025,
      "Ġsá»¥c": 5026,
      "aul": 5027,
      "Ġvo": 5028,
      "ĠráºŃp": 5029,
      "ĠkhÄĥng": 5030,
      "ĠÄĳai": 5031,
      "Ġlá»ĳc": 5032,
      "ĠÄĳÃły": 5033,
      "Ġnháº£": 5034,
      "ĠHÃ¬nh": 5035,
      "ĠTÃłi": 5036,
      "Æł": 5037,
      "ĠThá»«a": 5038,
      "Giang": 5039,
      "ĠthÃ³t": 5040,
      "Ġsáº£ng": 5041,
      "SÆ¡n": 5042,
      "Ġnguá»Ļi": 5043,
      "LÃ¡t": 5044,
      "Ġ_": 5045,
      "ĠngÃ³i": 5046,
      "Ġbá»Ľi": 5047,
      "Ġngá»«": 5048,
      "ĠlÆ°": 5049,
      "Ġlá»ıng": 5050,
      "Ġlá»ĩch": 5051,
      "ĠSá»±": 5052,
      "Sá»ĳng": 5053,
      "ĠkÃ¨n": 5054,
      "ĠxÃºm": 5055,
      ".Tháº¿": 5056,
      "Ġáº¯t": 5057,
      "Ġtiá»ģm": 5058,
      "ĠPhÆ°á»Ľc": 5059,
      "ĠÄĲá»ĩ": 5060,
      "á»§a": 5061,
      "ett": 5062,
      "ÄĲá»Ļt": 5063,
      "XuÃ¢n": 5064,
      "Ġtuá»ĳt": 5065,
      "ĠTÃło": 5066,
      "ĠlÃ¢y": 5067,
      "Ġchan": 5068,
      "Ġhá»±c": 5069,
      "Ġná»©t": 5070,
      "Ġrá»ĩt": 5071,
      "ĠbÃºn": 5072,
      "Ġnáº¿m": 5073,
      "ĠnhÃłu": 5074,
      "Ġkhoanh": 5075,
      "ĠgiÃłn": 5076,
      "ĠTráº§m": 5077,
      "ĠnghÃŃa": 5078,
      "Ġquá»ī": 5079,
      "Ġnáº¡p": 5080,
      "ĠsÆ°ng": 5081,
      "ĠTy": 5082,
      "ĠKháº¯c": 5083,
      "CH": 5084,
      "Ġphun": 5085,
      "ĠKhá»ķng": 5086,
      "-H": 5087,
      "ĠrÃŃu": 5088,
      "ĠMÆ¡": 5089,
      "âĢĶ": 5090,
      "ĠVua": 5091,
      "Ġngoáº£nh": 5092,
      "BÆ°á»Ľc": 5093,
      "Cáº£nh": 5094,
      "ĠNgoáº¡i": 5095,
      "ĠnhÃ¡": 5096,
      "Ġchuá»Ļc": 5097,
      "Ġdáº¡t": 5098,
      "Ġtá»ģ": 5099,
      "ĠHáº¯c": 5100,
      "ĠÄĲáº¿n": 5101,
      "ĠÄĲiá»ĩn": 5102,
      "Ġná»ĩm": 5103,
      ";ÃĶng": 5104,
      "Ġráº¡ch": 5105,
      "Ġthon": 5106,
      "PhÆ°á»£ng": 5107,
      "ĠdÃ£i": 5108,
      "PhÃº": 5109,
      "á»¥c": 5110,
      "Ġcá»įc": 5111,
      "Ġá»Ńng": 5112,
      "Cá»Ńa": 5113,
      "Ġbá»ģnh": 5114,
      "ĠlÃ¢n": 5115,
      "Ġláº§y": 5116,
      "Ġthiá»ĥu": 5117,
      "ĠPhá»¥": 5118,
      "ĠbÃłnh": 5119,
      "Ġnáº¥c": 5120,
      "Ġgiá»±t": 5121,
      "ĠTrá»ĭ": 5122,
      "Ġof": 5123,
      "Ġtáº©u": 5124,
      "Quang": 5125,
      "ĠqÃºa": 5126,
      "Tuyáº¿t": 5127,
      "ini": 5128,
      "ĠxÆ¡": 5129,
      "ĠTrÃ¬": 5130,
      "****": 5131,
      "ThÆ°Æ¡ng": 5132,
      ";ch": 5133,
      "ĠBÃ¡o": 5134,
      "Ġthoáº¯t": 5135,
      "ĠlÃ¢ng": 5136,
      "Ġchá»į": 5137,
      "ĠgiÆ°Æ¡ng": 5138,
      "ĠViá»ĩc": 5139,
      "Báº¯t": 5140,
      "á»¹": 5141,
      "ĠBá»Ńu": 5142,
      ";v": 5143,
      "ĠvÃ¹": 5144,
      "ĠÄĳá»Ĺi": 5145,
      "ĠdÄ©a": 5146,
      "ĠQuyá»ģn": 5147,
      "ĠrÃªu": 5148,
      "ĠxÃ³": 5149,
      "Ġháº¯ng": 5150,
      ".VÃł": 5151,
      "Ġtáº§u": 5152,
      "Ġmiáº¿u": 5153,
      "Ġráº«y": 5154,
      "ĠrÆ°á»£i": 5155,
      "Ġtáº»": 5156,
      "ĠcÃ¹": 5157,
      "ĠchÃ²i": 5158,
      "Thi": 5159,
      "ĠÄĳong": 5160,
      "ĠÄĳuá»": 5161,
      "ĠvÃ©n": 5162,
      "Ġxá»ķ": 5163,
      "Ġbá»ģn": 5164,
      "ĠTrÃ¬nh": 5165,
      "Ġom": 5166,
      "Ġbá»©t": 5167,
      "ĠcháºŃn": 5168,
      "ail": 5169,
      "Ġtriá»ģn": 5170,
      "ĠphÆ°á»£ng": 5171,
      "Ġlá»ĭm": 5172,
      "Ġphiáº¿n": 5173,
      "BÃ³ng": 5174,
      "Ká»³": 5175,
      "Ġliáº¿m": 5176,
      "ĠnghÃªnh": 5177,
      "Ġnáº¥m": 5178,
      "ĠngÃ¡t": 5179,
      "Ġtuá»³": 5180,
      "ĠmÃ©o": 5181,
      "ĠBÃ¹i": 5182,
      ".Háº¯n": 5183,
      "oc": 5184,
      "ĠnhÆ°á»Ľng": 5185,
      "ĠTÃŃnh": 5186,
      "Ġhá»¯ng": 5187,
      "NH": 5188,
      "Ġdá»Ļt": 5189,
      "Ġtá»Ļt": 5190,
      "Ġbáº½": 5191,
      "Ġlá»ķ": 5192,
      "Ġcáº³ng": 5193,
      "ĠkÃ¬nh": 5194,
      "ĠrÃºc": 5195,
      "Ġhá»§": 5196,
      "Ġchá»§ng": 5197,
      "ĠRa": 5198,
      "Ġbuá»ĵm": 5199,
      "ĠhÃ¡o": 5200,
      "ork": 5201,
      "KhÃ¡": 5202,
      "ĠmÃ¡ch": 5203,
      "áº¤y": 5204,
      "YÃªu": 5205,
      "ĠvÃ´i": 5206,
      "ĠXuyÃªn": 5207,
      "Ġj": 5208,
      "lÃł": 5209,
      "ĠChung": 5210,
      "ĠGiá»įng": 5211,
      "Cháº¿t": 5212,
      "ªm": 5213,
      "Chiáº¿n": 5214,
      "Ġriáº¿t": 5215,
      "Ġtoáº£": 5216,
      "ĠPhá»¥c": 5217,
      "Khu": 5218,
      "ny": 5219,
      "Ġtuá»ĵng": 5220,
      "Ġ!-": 5221,
      "ĠlÃ³e": 5222,
      "ĠsÃłnh": 5223,
      "ĠSiÃªu": 5224,
      "ChÃ¢n": 5225,
      "Ġcá»±a": 5226,
      "ĠvÃŃa": 5227,
      "Ġcháº§u": 5228,
      "Ġlá»Ļc": 5229,
      "ÄĲÃ¡ng": 5230,
      "Ġeo": 5231,
      "ĠvÅ©ng": 5232,
      "ĠTi": 5233,
      "ĠTuÃ¢n": 5234,
      "Quay": 5235,
      "ĠEl": 5236,
      "ĠtÃ¡ng": 5237,
      "Ġday": 5238,
      "Tá»«ng": 5239,
      "Ġrá»įi": 5240,
      "ÄĲÆ°a": 5241,
      "ĠbÃ¬a": 5242,
      "ĠgÃ£i": 5243,
      "ĠÄĳá»±c": 5244,
      "-k": 5245,
      "¹a": 5246,
      "Ġoáº£i": 5247,
      "Ġnáº©y": 5248,
      "ĠNÆ°á»Ľc": 5249,
      ".NgÃły": 5250,
      "ĠKiáº¿n": 5251,
      "ĠcÃ´n": 5252,
      "Cá»ĳ": 5253,
      "Ġbo": 5254,
      "Ġbiáº¿u": 5255,
      "ĠtÃ¢u": 5256,
      "ĠlÃ¬m": 5257,
      "Ġhá»ķn": 5258,
      "Ġsáº£nh": 5259,
      "Ġdá»ĩt": 5260,
      "Há»įc": 5261,
      "Ġuá»": 5262,
      "ĠCl": 5263,
      "?...": 5264,
      "ĠLá»ĩnh": 5265,
      "Chá»©": 5266,
      "Ġpháº£ng": 5267,
      "Ġsuáº¥t": 5268,
      "-tr": 5269,
      "ond": 5270,
      "ep": 5271,
      "ĠlÃ¹a": 5272,
      "Ġtrá»ĳ": 5273,
      "ĠphÃłm": 5274,
      "ĠsÃ²ng": 5275,
      "TrÃºc": 5276,
      "Ġngáº«u": 5277,
      "ĠÄĲÃłn": 5278,
      "nhÆ°": 5279,
      "ĠTáº¡": 5280,
      "Ġngá»Ľt": 5281,
      "ĠTÃ¡t": 5282,
      "Ġtráº»o": 5283,
      "Tá»Ń": 5284,
      "thá»": 5285,
      "ĠLiÃªm": 5286,
      "Ġtháº£ng": 5287,
      ";gt": 5288,
      "eb": 5289,
      "ĠÃ¹a": 5290,
      "ĠÄĲÃ¢u": 5291,
      "Ġtáº¡t": 5292,
      "ĠmÃŃt": 5293,
      "ĠnhÃºc": 5294,
      "Ġhan": 5295,
      "Ġrang": 5296,
      "ĠNghá»ĭ": 5297,
      "ĠchÃ³c": 5298,
      "Ġláº¡t": 5299,
      "Ġcá»ĵn": 5300,
      "Ġlim": 5301,
      "ĠnÃºp": 5302,
      "CÆ¡n": 5303,
      "Ġhá»Ľt": 5304,
      "eg": 5305,
      "Ġoang": 5306,
      "trong": 5307,
      "ĠTÃŃ": 5308,
      "ĠKhiÃªm": 5309,
      "ĠMáº·t": 5310,
      "ĠMiÃªu": 5311,
      "Ãįt": 5312,
      "chi": 5313,
      "Ġluá»ĵn": 5314,
      "ĠlÃ¹": 5315,
      "ette": 5316,
      "ti": 5317,
      "Ġsáº¿p": 5318,
      "NháºŃt": 5319,
      "¡y": 5320,
      "ĠTÃŃn": 5321,
      "ĠTom": 5322,
      "Ġgiá»Ŀi": 5323,
      "ĠThÃºc": 5324,
      "ĠPhiÃªn": 5325,
      ",c": 5326,
      "ĠmÆ°á»£t": 5327,
      "Ġhá»ĥn": 5328,
      "ĠchÃłi": 5329,
      "Ġtháº«n": 5330,
      "Ġmá»Ĺ": 5331,
      "Ġphai": 5332,
      "Ġchang": 5333,
      "Ġlá»ĥ": 5334,
      "ĠNÃ´": 5335,
      "ĠĠĠĠĠĠĠĠĠĠĠ": 5336,
      "Ġdáº«m": 5337,
      "Ġrá»©a": 5338,
      "ĠthoÃ¡i": 5339,
      "ĠÄĲá»ĭa": 5340,
      "Ġuá»ķng": 5341,
      "Ná»¥": 5342,
      "ĠÃ¡t": 5343,
      "Ġnuá»ĳi": 5344,
      "ĠthÃ¡n": 5345,
      ".Con": 5346,
      "GÆ°Æ¡ng": 5347,
      "Ġngao": 5348,
      "ĠlÃ¨": 5349,
      "ĠtrÃ²ng": 5350,
      "Ġrá»Ļ": 5351,
      "ĠrÃ³n": 5352,
      "ĠrÃ©n": 5353,
      "ĠchÃŃch": 5354,
      "-&": 5355,
      "Ġam": 5356,
      "Ġdáº·t": 5357,
      "Liá»ĩu": 5358,
      "ĠtÃ¬": 5359,
      "ĠÄ©": 5360,
      "Ġdáº§m": 5361,
      "Ġxáº£o": 5362,
      "ĠTrÃ¡c": 5363,
      "ĠthÃ³c": 5364,
      "ĠLá»±c": 5365,
      "Ġngháº¹t": 5366,
      "£c": 5367,
      "Ġnhá»Ļn": 5368,
      "ĠGiÃ¡m": 5369,
      "Ġgiá»Ĺ": 5370,
      "ĠLÆ°á»£ng": 5371,
      "ĠGr": 5372,
      "Ġnai": 5373,
      "ĠTho": 5374,
      "Ġá»ľ": 5375,
      "Ġuá»·": 5376,
      "ĠTá»ģ": 5377,
      "HÆ¡i": 5378,
      "ĠchÃ¹ng": 5379,
      "lÃłm": 5380,
      "ĠÄĳÃºt": 5381,
      "Ġrao": 5382,
      "ĠLÃ£m": 5383,
      "BÃŃch": 5384,
      "Ġbáº¡": 5385,
      "Ġxá»ĳc": 5386,
      "ĠTáº¡ng": 5387,
      "Sá»£": 5388,
      "á»§": 5389,
      "Ġmuá»Ĺi": 5390,
      "ĠKho": 5391,
      "ĠsÃ¢m": 5392,
      "ĠQuÃ¡ch": 5393,
      "Cáº§n": 5394,
      "ĠbÃ³i": 5395,
      "ama": 5396,
      "ĠÄĳá»ĳm": 5397,
      "ĠTH": 5398,
      "oy": 5399,
      "ĠtÆ°ng": 5400,
      "Ġgiá»ģng": 5401,
      "Ġchuá»ĵn": 5402,
      "ĠCháº¿t": 5403,
      "ĠLÃ£nh": 5404,
      "ChÃºa": 5405,
      "Ġváº¥p": 5406,
      "ĠDÃ¹": 5407,
      "Ġchay": 5408,
      "ĠAm": 5409,
      "á»ī": 5410,
      "co": 5411,
      "ĠÃ¹": 5412,
      "Ġnáº¯n": 5413,
      "ĠNguyá»ĩn": 5414,
      "ĠcÃºt": 5415,
      "ĠTÄĥng": 5416,
      "Kinh": 5417,
      "thÃ¬": 5418,
      "NgÃ´i": 5419,
      "ĠDiá»ĩn": 5420,
      "Ġxá»ı": 5421,
      "Ġmá»ģn": 5422,
      "Ġsáº«m": 5423,
      "Ġdiá»ģu": 5424,
      "erm": 5425,
      "ĠrÃ¢m": 5426,
      "ĠphÃ´": 5427,
      "Ġvá»īa": 5428,
      "Ġdá»¥i": 5429,
      "ĠKhÃ¡ch": 5430,
      "Há»ıi": 5431,
      "uk": 5432,
      "Ġgom": 5433,
      "PhÃ²ng": 5434,
      "Coi": 5435,
      "Ãµa": 5436,
      "ĩch": 5437,
      "ĠghÃ©p": 5438,
      "ĠTuyá»ģn": 5439,
      "Ġnhuá»Ļm": 5440,
      "ĠmÃ¡c": 5441,
      "Ġsá»ĩt": 5442,
      "ĠBá»Łi": 5443,
      "ĠThuyÃªn": 5444,
      ".ChÃºng": 5445,
      "Du": 5446,
      "ĠrÃ©o": 5447,
      "Ġngá»¥y": 5448,
      "ChÆ°Æ¡ng": 5449,
      "ĠMÃł": 5450,
      "Ġuá»ĥ": 5451,
      "Ġmá»ĳc": 5452,
      "Ġbanh": 5453,
      "Ġchoáº¡ng": 5454,
      "Ġran": 5455,
      "hÃ¡i": 5456,
      "ĠphÄĥng": 5457,
      "Tu": 5458,
      "ĠLá»Ļ": 5459,
      "].": 5460,
      "ĠÄĳáºŃt": 5461,
      "ĠrÄ©": 5462,
      "ĠÄĳanh": 5463,
      "ĠCáº£m": 5464,
      "-L": 5465,
      "Ġmá»ĵng": 5466,
      "Ġtháº¡o": 5467,
      "ĠSanh": 5468,
      "Tiáº¿p": 5469,
      "Ġnháº¡o": 5470,
      "Ġá»ıi": 5471,
      "ĠtrÃ¬u": 5472,
      "to": 5473,
      "Ġ)": 5474,
      "ĠhuyÃªn": 5475,
      "ĠxÃ¡o": 5476,
      "ĠxÃ´n": 5477,
      "che": 5478,
      "ĠNho": 5479,
      "ĠQuy": 5480,
      "ĠláºŃu": 5481,
      ".Chá»ī": 5482,
      "ĠÃ²a": 5483,
      "ĠbÃ¹a": 5484,
      "ĠtrÄĥn": 5485,
      "ĠMá»Ľi": 5486,
      ";...": 5487,
      "ÄĲoÃłn": 5488,
      "ĠDÄ©": 5489,
      "ĠQuá»·": 5490,
      "Sá»Ł": 5491,
      "Ġdáº£i": 5492,
      "Ġtá»£n": 5493,
      "Phan": 5494,
      "ĠLá»¯": 5495,
      "Ġá»ī": 5496,
      "LÅ©": 5497,
      "ÄĲoan": 5498,
      "Ġbiáº¿ng": 5499,
      "ĠchiÃªn": 5500,
      "ĠBÃłn": 5501,
      "ĠÄĲÃªm": 5502,
      "Ġkhá»±ng": 5503,
      "Ġkháº¥n": 5504,
      "Ġbá»īnh": 5505,
      "ĠcÃ²ng": 5506,
      "Ġdá»ĳt": 5507,
      "Ġpháº«u": 5508,
      "ĠMat": 5509,
      "ĠAd": 5510,
      "ĠNhan": 5511,
      "ĠÄĲá»ģ": 5512,
      "ĠÄĳuá»ĳc": 5513,
      "ĠlÆ°á»£m": 5514,
      "ĠkÃ©t": 5515,
      "Khá»ķ": 5516,
      "Ġnháº©m": 5517,
      "ĠPeter": 5518,
      "ÄĲá»£i": 5519,
      "nhá»¯ng": 5520,
      "Ġhoe": 5521,
      "Vi": 5522,
      "cÃ¡i": 5523,
      "ĠmÃ©": 5524,
      "Ġgo": 5525,
      "Ġcáº£ng": 5526,
      "ĠKÃ½": 5527,
      "ĠÄĳá»ĩm": 5528,
      "Ġxuyáº¿n": 5529,
      "Ġquáº¡nh": 5530,
      "ers": 5531,
      "Ġgháº¹o": 5532,
      "HoÃłn": 5533,
      "ĠmÃŃa": 5534,
      "Ġmáº£": 5535,
      "Ġnguá»Ŀi": 5536,
      "ĠDanh": 5537,
      "Ġtá»Ńu": 5538,
      "by": 5539,
      "Ġnháº©y": 5540,
      "ĠrÃ¨m": 5541,
      "Ġvá»ĵ": 5542,
      "ĠTÄ©nh": 5543,
      "Ġngá»£m": 5544,
      "ĠDá»±": 5545,
      "Ġphá»ķi": 5546,
      ".)": 5547,
      "ĠCan": 5548,
      "Há»ĵ": 5549,
      "ĠTuyÃªn": 5550,
      "ĠCá»ĳc": 5551,
      "Äĳá»ĥ": 5552,
      "rot": 5553,
      "ĠSÃ¡ch": 5554,
      "ĠtÆ°á»Ľi": 5555,
      "ĠsÃło": 5556,
      "Ġdá»Ńng": 5557,
      "MÃ¡i": 5558,
      "Ġmáº«n": 5559,
      "Ġnáº¡": 5560,
      "ĠSÃ¡t": 5561,
      "TÃ³c": 5562,
      "Ġthá»«ng": 5563,
      "ĠHáº¡c": 5564,
      "-la": 5565,
      "uÃ´ng": 5566,
      "Ġgháº»": 5567,
      "ĠmÆ¡n": 5568,
      "ĠthÃ¢y": 5569,
      "ÃĲÃ³": 5570,
      "ug": 5571,
      "Ġlá»ĳ": 5572,
      "ĠSang": 5573,
      "Ġtáº¥u": 5574,
      "ĠTuy": 5575,
      "Ġque": 5576,
      "Ġtaxi": 5577,
      "Triá»ĩu": 5578,
      "Ġkháº¥t": 5579,
      "ĠYÃªu": 5580,
      "ort": 5581,
      "Ġtrá»ģ": 5582,
      "ĠbÆ°u": 5583,
      "Ġxá»Ļn": 5584,
      "ĠLá»ħ": 5585,
      "ĠcÆ°á»Ľc": 5586,
      "ĠdÃŃ": 5587,
      "ĠdÆ°á»£ng": 5588,
      "Ġthá»ĳn": 5589,
      ";d": 5590,
      "ĠTÆ°Æ¡ng": 5591,
      "Ġchá»Ļp": 5592,
      "Náº¯ng": 5593,
      "Ġnhao": 5594,
      "va": 5595,
      "ĠHuyáº¿t": 5596,
      "lan": 5597,
      "ba": 5598,
      "vÃ¬": 5599,
      "ĥnh": 5600,
      "ĠmÆ°á»Ľt": 5601,
      "Ġcá»§ng": 5602,
      "Ġchá»«": 5603,
      "Tá»©c": 5604,
      "ĠÃĲÃ´ng": 5605,
      "Há»«": 5606,
      "ĠbÃ´": 5607,
      "ĠLÃło": 5608,
      "Ġ.âĢĵ": 5609,
      "Ġá»ķi": 5610,
      "Ġdáº»": 5611,
      "Ġkhiáº¿t": 5612,
      "ĠBá»įn": 5613,
      "ĠÄĲáº±ng": 5614,
      "ĠThuÃ½": 5615,
      "CÃ¡m": 5616,
      "Ġdáº¿": 5617,
      "ĠxiÃªu": 5618,
      "-nh": 5619,
      "ĠlÃ©t": 5620,
      "Ġngáº·t": 5621,
      "Ġkiá»ĩu": 5622,
      "Ġsáº¹o": 5623,
      "ÄĲáº±ng": 5624,
      "ĠquÃ¡ng": 5625,
      "ĠrÆ°á»£t": 5626,
      "Ġquáº¯c": 5627,
      "Ġhá»Ńng": 5628,
      "Ġtá»³": 5629,
      "Ġsá»¥t": 5630,
      "Ġkhom": 5631,
      "Ġxáº©y": 5632,
      "ÄĲoáº¡n": 5633,
      "Diá»ħm": 5634,
      "Káº¿t": 5635,
      "ĠÄĳÃŃt": 5636,
      "Ġguá»ĳc": 5637,
      "Ġhun": 5638,
      "ĠxÃ©o": 5639,
      "Ġmáº¡t": 5640,
      "Ġtriá»ĩt": 5641,
      "ĠTÃªn": 5642,
      "ĠXÆ°Æ¡ng": 5643,
      "Ġchá»Ńa": 5644,
      "ans": 5645,
      "ĠhÃ²ng": 5646,
      "ĠTrÃªn": 5647,
      "ĠÆ¯": 5648,
      "ĠÄĳuá»£c": 5649,
      "Ġláº£o": 5650,
      "ĠnhÅ©": 5651,
      "Sáº½": 5652,
      "Tá»ĳt": 5653,
      "á»Ĺng": 5654,
      "Ġcá»Ńu": 5655,
      "ĠdiÃªm": 5656,
      "LÆ°Æ¡ng": 5657,
      "ĠÄĳáº¥ng": 5658,
      "ĠCá»¥": 5659,
      "ĠkhÃª": 5660,
      "ĠcÆ°a": 5661,
      "Ġchau": 5662,
      "ĠHiÃªn": 5663,
      "Im": 5664,
      "ĠrÃ¨n": 5665,
      "ĠxÃ¹": 5666,
      "ĠSÃ¢m": 5667,
      ";k": 5668,
      ";Sao": 5669,
      "ate": 5670,
      "Giá»ĳng": 5671,
      ".Qu": 5672,
      "Â¸": 5673,
      "Ġsá»Ļ": 5674,
      "ĠKá»·": 5675,
      "ino": 5676,
      "ĠGiáº£": 5677,
      "Ġgiáº±ng": 5678,
      "ĠEd": 5679,
      "bÃł": 5680,
      "ĠtÃ½": 5681,
      ".Y": 5682,
      "Ġcá»Ļc": 5683,
      "ĠlÃ£m": 5684,
      "ĠnhÃ¡c": 5685,
      "ĠgáºŃp": 5686,
      "Ġtháº«m": 5687,
      "ĠTÃ½": 5688,
      "ĠSte": 5689,
      ";B": 5690,
      "ĠnhÆ°á»£ng": 5691,
      "áº»n": 5692,
      "ĠkhÃ¢u": 5693,
      "ĠPhá»ĳ": 5694,
      "ibal": 5695,
      "Ġthá»īu": 5696,
      "az": 5697,
      "ĠtrÃ¹": 5698,
      ".Tiáº¿ng": 5699,
      ";tr": 5700,
      "Ná»Ļi": 5701,
      "PhÃºc": 5702,
      "Ġdiá»ħm": 5703,
      "hÃºng": 5704,
      "ĠÄĳÄ©": 5705,
      "ĠphÃ¡c": 5706,
      "Ġum": 5707,
      "Ġtáº¡c": 5708,
      "Ġri": 5709,
      "Ġkhuáº¥y": 5710,
      "ĠThá»©": 5711,
      "ashi": 5712,
      "Ġnháº½o": 5713,
      "ĠlÃºt": 5714,
      "ĠbÄ©u": 5715,
      "Ġthui": 5716,
      "ĠxoÃ¡": 5717,
      "ĠláºŃn": 5718,
      "Ġmin": 5719,
      "ĠngÃºt": 5720,
      "Ġtháº¯n": 5721,
      "hai": 5722,
      "¿ch": 5723,
      "Háº±ng": 5724,
      "Ġthá»Ľt": 5725,
      "Ġná»ĭnh": 5726,
      "ĠthÃŃt": 5727,
      "Æ°á»£u": 5728,
      "ĠgiÃ´ng": 5729,
      "Ġand": 5730,
      "Mar": 5731,
      "Ná»Ńa": 5732,
      "Ġkiá»ģm": 5733,
      "Ġngá»ķn": 5734,
      "Ġbá»ĭa": 5735,
      "âĢ¦âĢ¦": 5736,
      "Ġchá»įi": 5737,
      "Ãļ": 5738,
      "Ġkhua": 5739,
      "ĠLo": 5740,
      "ĠMá»įi": 5741,
      ".Tuy": 5742,
      "tern": 5743,
      "ĠngÃ¡p": 5744,
      "ĠTuyá»ĩt": 5745,
      "ĠquÃŃt": 5746,
      "ĠTráº¥n": 5747,
      "Ġdoáº¡": 5748,
      "Long": 5749,
      "Ġmáº§m": 5750,
      "ĠGiÃ¡c": 5751,
      "lex": 5752,
      "Ġbiáº¿c": 5753,
      "Vy": 5754,
      "ĠlÃ¡c": 5755,
      "ĠHiáº¿n": 5756,
      "Ġtoang": 5757,
      "Ġcá»¥m": 5758,
      "HÃ¹ng": 5759,
      "ĠhÃ¢m": 5760,
      "ĠhoÃłnh": 5761,
      "ĠKhÃª": 5762,
      "Ġphá»Ľt": 5763,
      "Láº¡": 5764,
      "ĠSi": 5765,
      "Ġtrá»¥i": 5766,
      "ky": 5767,
      "Ġláº¡ng": 5768,
      "ĠTá»ĳi": 5769,
      "Ġtá»±u": 5770,
      "ĠGÃ¬": 5771,
      "Tháº¡ch": 5772,
      "Ġtáº¥c": 5773,
      "ĠkÃ¨": 5774,
      "??": 5775,
      "ĠnÅ©ng": 5776,
      "ĠnhÆ¡": 5777,
      "ĠquÃ½t": 5778,
      "ĠtÃºy": 5779,
      "ĠvÃªnh": 5780,
      "Ġcá»įng": 5781,
      "Ġyá»ĥ": 5782,
      "ĠSaigon": 5783,
      ".ÃĲ": 5784,
      "CÃ¡t": 5785,
      "ĠTá»ĵn": 5786,
      "âĢ¦&": 5787,
      "omp": 5788,
      ".âĢĿâĢľ": 5789,
      "ĠTá»ĳt": 5790,
      "Ġhá»Ļc": 5791,
      "ĠThá»±c": 5792,
      "?T": 5793,
      "Váº»": 5794,
      "Ġquai": 5795,
      "ĠpháºŃp": 5796,
      "ĠkhuÃ¢ng": 5797,
      "á»ľ": 5798,
      "á»Ľm": 5799,
      "Ġnáº¡i": 5800,
      "Ġnhiá»ħu": 5801,
      "ĠgiÃ£n": 5802,
      "ian": 5803,
      "Ġthiu": 5804,
      "Xa": 5805,
      "ler": 5806,
      "ĠÄĳiáº¿c": 5807,
      "ĠChÃł": 5808,
      "-T": 5809,
      "-ng": 5810,
      "LÃªn": 5811,
      "LÆ°u": 5812,
      "ĠbáºŃp": 5813,
      "Ġhá»«": 5814,
      "Ġlá»§i": 5815,
      "ĠVÃłng": 5816,
      "su": 5817,
      "ĠxÃŃt": 5818,
      "ern": 5819,
      "Ġthá»¥c": 5820,
      "DÅ©ng": 5821,
      "Ġnham": 5822,
      "ĠMáºŃu": 5823,
      "ĠChiÃªm": 5824,
      ".A": 5825,
      "ĠlÃ¹n": 5826,
      "Ġvun": 5827,
      "¡nh": 5828,
      "eor": 5829,
      "ĠkhÃ³e": 5830,
      "ÄĳÃ£": 5831,
      ".Chá»ĭ": 5832,
      "Ġkeo": 5833,
      "ĠTháº¥y": 5834,
      "ĠQuáº£": 5835,
      "ĠChá»£": 5836,
      "ĠbÃ¨o": 5837,
      "ĠDav": 5838,
      "VÃŃ": 5839,
      "hay": 5840,
      "Ġráº£o": 5841,
      "Ġbá»į": 5842,
      "Ġlá»«": 5843,
      "ĠtÃ¹m": 5844,
      "Ġá»¦a": 5845,
      "cÅ©ng": 5846,
      "ĠLáº¡p": 5847,
      "ChÃło": 5848,
      "ĠRos": 5849,
      "Ġkhuynh": 5850,
      ";Tháº¿": 5851,
      "Tim": 5852,
      "Ġkiá»ĩm": 5853,
      "ĠKÃŃnh": 5854,
      "GiÃ¡o": 5855,
      "ĠMaria": 5856,
      "ren": 5857,
      "ĠÄĳiáº¿ng": 5858,
      "ĠkiÃªm": 5859,
      "Ġgáº·t": 5860,
      "ĠBÃŃnh": 5861,
      "ĠphÆ¡": 5862,
      "Máº¡nh": 5863,
      "ĠmÃºc": 5864,
      "Ġbong": 5865,
      "QuÃ½": 5866,
      "ĠMá»¥c": 5867,
      ".Vá»«a": 5868,
      "Ġsá»ī": 5869,
      "Ġhoáº£": 5870,
      "ĠPhu": 5871,
      "ale": 5872,
      "Tuá»ķi": 5873,
      "ĠMau": 5874,
      "ĠrÃł": 5875,
      "ĠdÃºi": 5876,
      "Ġpháº©y": 5877,
      "ĠMÃ¹i": 5878,
      "ĠVá»ĭ": 5879,
      "ins": 5880,
      "Ġná»ĭu": 5881,
      "Ġganh": 5882,
      "ĠSp": 5883,
      "ĠchÃªnh": 5884,
      "ThÃªm": 5885,
      "ChÃ¢u": 5886,
      "ĠcÃºp": 5887,
      "Ġná»Ĺ": 5888,
      "ith": 5889,
      "ĠÃ¡": 5890,
      "Ġhá»Ľp": 5891,
      "ĠuÃ½": 5892,
      "NháºŃn": 5893,
      "ue": 5894,
      "que": 5895,
      "annibal": 5896,
      "ĠlÃ¹m": 5897,
      "Ġráº¡": 5898,
      "ĠrÃ¡t": 5899,
      "Ġhuá»ĩ": 5900,
      "Ġquáº¹t": 5901,
      "cha": 5902,
      "ĠThoáº¡i": 5903,
      "Thay": 5904,
      "ĠNhÆ¡n": 5905,
      "Giáº£": 5906,
      "ĠngÃ¡y": 5907,
      "ĠBÃŃ": 5908,
      "ĠHá»£p": 5909,
      "Ġláº»n": 5910,
      "van": 5911,
      "há»ģ": 5912,
      "Ġnháº¥m": 5913,
      "Ġnhoi": 5914,
      "Lu": 5915,
      "ĠcÃµng": 5916,
      "Ġbáº·m": 5917,
      "ĠNo": 5918,
      "HÃłnh": 5919,
      "So": 5920,
      "ĠtÃ³": 5921,
      "ĠMac": 5922,
      "ĠkÃªnh": 5923,
      "Ġkhá»ĳng": 5924,
      "ĠquÃ¢y": 5925,
      "Ġquáº¯t": 5926,
      "eth": 5927,
      ";ÄĲ": 5928,
      "Ġhá»©c": 5929,
      "ĠHá»Ļ": 5930,
      "ĠLÄ©nh": 5931,
      "ada": 5932,
      "Cáº·p": 5933,
      "ĠCÃ¢y": 5934,
      "ĠTriáº¿t": 5935,
      "ĠRob": 5936,
      "ĠvÃŃu": 5937,
      "ĠdÃło": 5938,
      "ĠCuá»ĵng": 5939,
      "ampuch": 5940,
      "gh": 5941,
      "xt": 5942,
      ";.&": 5943,
      "ĠGiáº£i": 5944,
      "ice": 5945,
      "ĠVá»«a": 5946,
      "UyÃªn": 5947,
      ";-": 5948,
      "Náº±m": 5949,
      "ĠÄĲen": 5950,
      "ĠmÃ¡ng": 5951,
      "Ġxoe": 5952,
      "ĠÄĳá»Ŀn": 5953,
      "ĠLáº§n": 5954,
      "ĠÄĲá»Ļng": 5955,
      "Gá»įi": 5956,
      "ĠvÃ£i": 5957,
      "Ġnháº£m": 5958,
      "ĠTÃŃch": 5959,
      "ĠSáº£n": 5960,
      "ĠTá»¥i": 5961,
      ".*": 5962,
      "Cao": 5963,
      "ım": 5964,
      "ĠbÃ¹i": 5965,
      "ĠsÃºt": 5966,
      "hu": 5967,
      "Ġkiáº¿ng": 5968,
      "Ġtráº¡c": 5969,
      "Ġdong": 5970,
      "Uá»ĳng": 5971,
      "ĠThiá»ģu": 5972,
      "ĠYork": 5973,
      "ĠJack": 5974,
      "HÆ°ng": 5975,
      "Ġrá»ģn": 5976,
      "Dáº¡o": 5977,
      "Huyá»ģn": 5978,
      "ĠNiá»ĩm": 5979,
      "ĠVu": 5980,
      "ĠTri": 5981,
      "CÆ¡": 5982,
      "TÃ¢n": 5983,
      "ĠlÆ°á»Ŀm": 5984,
      "Ġchá»«a": 5985,
      "ĠCali": 5986,
      "ĠGiÃ¡": 5987,
      "Ġxá»īu": 5988,
      "Dung": 5989,
      "ĠnÃ¡ch": 5990,
      "Ġkhiáº¿u": 5991,
      "Ġcháº§n": 5992,
      "Dáº«u": 5993,
      "ĠchÃ©o": 5994,
      "ĠthÃºng": 5995,
      "-M": 5996,
      ".ÄĲáº¿n": 5997,
      "ĠÃº": 5998,
      "ĠmÃ³": 5999,
      "ĠgÃłng": 6000,
      "NgÆ°á»£c": 6001,
      "Ġláº£nh": 6002,
      "Ġngáº§u": 6003,
      "ĠhÃ¹": 6004,
      "Ġthá»§i": 6005,
      "ĠnhoÃ¡ng": 6006,
      "LáºŃp": 6007,
      "Ġnua": 6008,
      "ĠMá»Ŀi": 6009,
      "ald": 6010,
      "ĠNhá»Ľ": 6011,
      "ĠÆ¯ng": 6012,
      "ĠKhiáº¿t": 6013,
      "ĠWil": 6014,
      "ĠbÃº": 6015,
      "Ġlá»ĭa": 6016,
      "ĠHi": 6017,
      "Ġtrá»ĭnh": 6018,
      "NhÃ£": 6019,
      ".Tháº¥y": 6020,
      "á»ĭch": 6021,
      ".Ba": 6022,
      "Miá»ĩng": 6023,
      "gÃ²n": 6024,
      "ĠBáº¿n": 6025,
      "Thoáº¡t": 6026,
      "Ġrá»ķ": 6027,
      "Ġ:&": 6028,
      "ĠtiÃªm": 6029,
      "Ġráº±m": 6030,
      "ĠHá»·": 6031,
      "ĠHá»ıa": 6032,
      "Háº§u": 6033,
      "ĠÄĳáº§n": 6034,
      "Ġgáº¯p": 6035,
      "Ġria": 6036,
      "ĠKhoan": 6037,
      "Bá»ı": 6038,
      "Ġxá»ĭt": 6039,
      "ampuchia": 6040,
      ".CÃ²n": 6041,
      "Tin": 6042,
      "ni": 6043,
      "ĠsÃ¹i": 6044,
      "ĠhÆ°ng": 6045,
      "ĠkhÃ¢m": 6046,
      "âĢ¦âĢĿ.": 6047,
      "ei": 6048,
      "Ġtáº©y": 6049,
      "Ġtáº©m": 6050,
      "Ġmoi": 6051,
      "ĠTÃºc": 6052,
      "ĠchÃºi": 6053,
      "ĠKhuyÃªn": 6054,
      "Kháº£i": 6055,
      "ÄĲáº¡o": 6056,
      "-qu": 6057,
      ".CÃ¡i": 6058,
      "Ġthá»«": 6059,
      "ĠDoÃ£n": 6060,
      "Ġláº«m": 6061,
      "Ġgáº¥m": 6062,
      "ĠNÃło": 6063,
      "Nguyá»ĩt": 6064,
      "ĠVá»Ľi": 6065,
      "á»©a": 6066,
      "ĠvÃ³": 6067,
      "ĠrÆ°Æ¡ng": 6068,
      "ÄĲá»Ĺ": 6069,
      "ĠLá»Ľn": 6070,
      "ĠNháº¡n": 6071,
      "Khoa": 6072,
      "ĠÃ¡y": 6073,
      "Ġnáº·c": 6074,
      "ÃĲáº¿n": 6075,
      "ĠMÃª": 6076,
      "iá»ĥng": 6077,
      "ĠTrá»±c": 6078,
      "are": 6079,
      ";NhÆ°ng": 6080,
      "Buá»ĵn": 6081,
      "ĠvÃ©t": 6082,
      "ĠnÃ¡y": 6083,
      "ÄĲÃło": 6084,
      "Ġyou": 6085,
      "ĠNgá»¯": 6086,
      "Ġká»ģm": 6087,
      "ĠphÃłn": 6088,
      "Ġnhá»ım": 6089,
      "ĠVá»£": 6090,
      "ĠBáº©m": 6091,
      "Ġngá»©a": 6092,
      "âĢľTÃ´i": 6093,
      "Thá»¥c": 6094,
      "Ġáº¿ch": 6095,
      "Ġrá»ĳng": 6096,
      "ĠthÃŃnh": 6097,
      "ĠgiÃ²n": 6098,
      "ĠVÄ©": 6099,
      "Ġthá»ķn": 6100,
      "ĠMan": 6101,
      "TÃ´n": 6102,
      "Ġtá»¥t": 6103,
      "Ma": 6104,
      "ĠLá»Ĺ": 6105,
      "áºµm": 6106,
      "ĠgÃ²n": 6107,
      "ĠLiÃªu": 6108,
      "ĠNgá»±": 6109,
      "Chung": 6110,
      "ĠCharl": 6111,
      "ĠIs": 6112,
      "rá»ĵi": 6113,
      "Ġcháº±ng": 6114,
      "ThÃŃm": 6115,
      "Ġdáº¥p": 6116,
      "ĠCai": 6117,
      ";NgÆ°á»Ŀi": 6118,
      "Ġláº±n": 6119,
      "ĠxÃ²e": 6120,
      "ThÆ¡": 6121,
      "Ġgá»£n": 6122,
      "ation": 6123,
      "Ġlá»īnh": 6124,
      "ĠChÆ°á»Łng": 6125,
      "Há»ħ": 6126,
      "Ġchá»ķi": 6127,
      "Ġlá»¥y": 6128,
      "ĠBi": 6129,
      "ĠTráº¡ch": 6130,
      "Ġlá»±u": 6131,
      "Má»Ł": 6132,
      "Ġmuá»": 6133,
      "erc": 6134,
      "ĠkÃ©p": 6135,
      "Ġtá»µ": 6136,
      "Ġthá»¥t": 6137,
      "ĠNÃ´ng": 6138,
      "ĠHuÃ¢n": 6139,
      "ĠTriá»ĥn": 6140,
      "Ġáº¯p": 6141,
      "Ġnhá»ĵi": 6142,
      "ĠxÃ¢u": 6143,
      "Ġnhá»ķm": 6144,
      "ĠVÃło": 6145,
      "Ġká»īnh": 6146,
      "ĠGiá»Ľi": 6147,
      "Ġtruá»ĵng": 6148,
      "ĠHÃłm": 6149,
      "QuÃ¡": 6150,
      "len": 6151,
      "ĠÄĲÃ´n": 6152,
      "Ġá»Ĳ": 6153,
      "Lo": 6154,
      "ĠÃ¬": 6155,
      "ĠnhÃ¡o": 6156,
      "Ġthá»įc": 6157,
      "Ġcháº½": 6158,
      "ĠBob": 6159,
      "ÄĲá»įc": 6160,
      "ĠtuÃ´ng": 6161,
      "!âĢĵ": 6162,
      "Ġlem": 6163,
      "ĠtrÃ³t": 6164,
      "ĠrÃ¡n": 6165,
      "ĠxÃºi": 6166,
      "ĠTáº¿": 6167,
      "Ġmá»ĭch": 6168,
      "ThÆ°á»£ng": 6169,
      "Ġthá»ım": 6170,
      "ĠbÃºng": 6171,
      "ĠrÃŃch": 6172,
      "ĠTin": 6173,
      "Ġtiáº¿u": 6174,
      "Ġ?âĢĵ": 6175,
      "Ġvá»ĭn": 6176,
      "ĠRáº¥t": 6177,
      "Liá»ħu": 6178,
      "Ġváº¹o": 6179,
      "Ġray": 6180,
      "ĠÄĲao": 6181,
      "Ġkhá»Ľp": 6182,
      ".[": 6183,
      "ĠÄĤn": 6184,
      "Ġloáº¡ng": 6185,
      "ĠXÃ£": 6186,
      "ist": 6187,
      "Cáº§m": 6188,
      "ĠnhÃ²a": 6189,
      "Ġháº«ng": 6190,
      "ĠCampuchia": 6191,
      "ĠlÃ²a": 6192,
      "Ġpin": 6193,
      "ĠÄĲá»ĳc": 6194,
      "Ġcuá»ĵn": 6195,
      "ĠlÃµng": 6196,
      "ĠbuÃ½t": 6197,
      "ĠJean": 6198,
      "TÆ°á»Ŀng": 6199,
      ".Náº¿u": 6200,
      "Ġnáº»o": 6201,
      "ĠHar": 6202,
      "ĠNgáº¡n": 6203,
      "Bá»©c": 6204,
      "Ġduyá»ĩt": 6205,
      "ĠBá»ĳn": 6206,
      ".TrÆ°á»Ľc": 6207,
      "ĠThá»©c": 6208,
      "Táº¥m": 6209,
      "náº¿u": 6210,
      "ĠÄĳá»ĥu": 6211,
      "Ġthoáº¡t": 6212,
      ";CÃ´": 6213,
      "DÃ²ng": 6214,
      "ĠcÃłn": 6215,
      "ĠÄĲáº¥t": 6216,
      "Lá»¥c": 6217,
      "chá»ī": 6218,
      "Ġlá»§ng": 6219,
      "ĠNgÃłn": 6220,
      "Pháº¡m": 6221,
      "Ġquá»¹": 6222,
      "Ġáº£i": 6223,
      "ĠÄĳÃ¢": 6224,
      "Ġhe": 6225,
      "ChÃł": 6226,
      "Ġmá»įn": 6227,
      "ĠCá»±c": 6228,
      "!TÃ´i": 6229,
      "ez": 6230,
      "ĠRu": 6231,
      ";x": 6232,
      "Váº¥n": 6233,
      "ĠÄĳÃ¡i": 6234,
      "ĠmÄ©": 6235,
      "Ġgá»Ļi": 6236,
      "Ġráº·ng": 6237,
      "ĠlÃło": 6238,
      "Ġquáº³ng": 6239,
      "ÄĲáº¥t": 6240,
      "TÃ¢y": 6241,
      ".GÃ£": 6242,
      "ĠNáºµng": 6243,
      "ĠhoÃ£n": 6244,
      "Ġká»ī": 6245,
      "ĠkhÃ³m": 6246,
      "ĠGeor": 6247,
      "ĠMary": 6248,
      "ĠsÃ´": 6249,
      "ĠdÃł": 6250,
      "Ġduá»Ĺi": 6251,
      "Ġngoáº¡n": 6252,
      "ĠnhÃºng": 6253,
      "ĠNG": 6254,
      "...âĢĿ.": 6255,
      "ĠGiÃ¡p": 6256,
      "ĠhuÃ½t": 6257,
      "pa": 6258,
      "Ġmiáº¿t": 6259,
      "á»Ļp": 6260,
      "ÃŃa": 6261,
      "Ġá»Ľn": 6262,
      "ĠĠĠĠĠĠĠĠĠĠ": 6263,
      "ĠChÃºc": 6264,
      "ThÃ¹y": 6265,
      "ĠchÄ©a": 6266,
      "Ġchá»¯ng": 6267,
      "Ġquáº¹o": 6268,
      "ĠNá»¥": 6269,
      "ĠHuyá»ĩn": 6270,
      "lÃ´": 6271,
      "Trá»Ł": 6272,
      "ĠxuÃ½t": 6273,
      ".Cáº£": 6274,
      "Cá»ķ": 6275,
      "IA": 6276,
      "á»£i": 6277,
      "ĠTrai": 6278,
      "ĠPhÃ¡n": 6279,
      "ĠsÃł": 6280,
      "Ġhá»¡i": 6281,
      "Ngá»įn": 6282,
      "Ġrá»Ŀn": 6283,
      "QuÃ¡n": 6284,
      "TÃ³m": 6285,
      "Ġlá»ıi": 6286,
      "Ġá»¶": 6287,
      "Ġthoa": 6288,
      "YÃªn": 6289,
      "ĠÆ°á»Ľp": 6290,
      "Ġmáº¿u": 6291,
      "ĠXÃł": 6292,
      ".Há»į": 6293,
      "Tiáº¿n": 6294,
      "Ġváº¡": 6295,
      "ĠxÆ°á»Ľng": 6296,
      "Ġlá»įi": 6297,
      "NÃ©t": 6298,
      "Ġtá»¥y": 6299,
      "ĠHen": 6300,
      "ĠNhÃłn": 6301,
      "ĠAnd": 6302,
      "ĠchÃ²m": 6303,
      "ĠvÃ¨o": 6304,
      "ĠgÃłi": 6305,
      "ĠCH": 6306,
      "ĠMá»Ļ": 6307,
      "ĠPaul": 6308,
      "ind": 6309,
      "âĢĿ.âĢľ": 6310,
      "ony": 6311,
      "Ġyáº¿n": 6312,
      "Ġtiá»ģu": 6313,
      "ĠquÃ¬": 6314,
      "ĠMuá»ĳn": 6315,
      "Ġnhá»¡": 6316,
      "Báº£y": 6317,
      "Káº¿": 6318,
      "ĠkÄ©": 6319,
      "giá»": 6320,
      "ĠgÃ³a": 6321,
      "Ġthá»¯ng": 6322,
      "ÄĲá»ĭnh": 6323,
      "liam": 6324,
      "ĠÄĳÃ¬a": 6325,
      "ĠnhÃ³t": 6326,
      "ĠrÄĥn": 6327,
      "ĠNhÃ¬n": 6328,
      "ĠGiá»Ŀ": 6329,
      ";amp": 6330,
      "Dáº§n": 6331,
      "Kiá»ģu": 6332,
      "ĠVal": 6333,
      "ĠJam": 6334,
      ".LÃ½": 6335,
      "ın": 6336,
      "Ġráº£": 6337,
      "ĠthuyÃªn": 6338,
      "ĠMÃ¡c": 6339,
      "ĠLá»ĭch": 6340,
      "XÆ°a": 6341,
      "ĠNÃ¨": 6342,
      "ChÃºc": 6343,
      ";L": 6344,
      "ĠSo": 6345,
      "ĠNhÄ©": 6346,
      "Ġnhoáº»n": 6347,
      "á»©ng": 6348,
      "Ġloi": 6349,
      "old": 6350,
      "Dá»©t": 6351,
      "ss": 6352,
      ".Bá»Ĺng": 6353,
      "red": 6354,
      "?ÃĶng": 6355,
      "Ġváº¯n": 6356,
      "ens": 6357,
      "orn": 6358,
      "ĠquÃ½nh": 6359,
      ";N": 6360,
      "ĠchÃŃt": 6361,
      "Ġthoi": 6362,
      "ĠHá»«": 6363,
      "VÃº": 6364,
      "Ġbe": 6365,
      "ĠsÆ°u": 6366,
      "Ġhuá»·": 6367,
      "Ġqueo": 6368,
      "ĠBar": 6369,
      "Ġcaf": 6370,
      "Ġneo": 6371,
      "ĠkhÃŃa": 6372,
      ".Nghe": 6373,
      "Má»Ŀi": 6374,
      "ĠLau": 6375,
      "ĠDÆ°": 6376,
      "ĠÄĲá»ĭch": 6377,
      "TiÃªu": 6378,
      "Ġtháº£i": 6379,
      "Ġá»Ŀ": 6380,
      "Ġdá»¥m": 6381,
      "Ġlom": 6382,
      "Nháº¡c": 6383,
      "Oo": 6384,
      "cá»§a": 6385,
      "ĠphÃ²": 6386,
      "TrÄĥng": 6387,
      "ĠJu": 6388,
      "?âĢĿâĢľ": 6389,
      "Ġnung": 6390,
      "Ġtivi": 6391,
      "ty": 6392,
      "Ġcáº¥y": 6393,
      "ĠliÃªu": 6394,
      "Ġdáº»o": 6395,
      "ĠNan": 6396,
      "ĠÄĳÃ³m": 6397,
      "ĠMáºŃt": 6398,
      "Ġá»Ľ": 6399,
      "Mong": 6400,
      "ĠÃºa": 6401,
      "ĠrÃ¹a": 6402,
      "ĠphÃł": 6403,
      "Ġphanh": 6404,
      ".HoÃłng": 6405,
      "Æ°Æ¡u": 6406,
      "ĠSc": 6407,
      "Hiá»ĥu": 6408,
      "ĠtÆ°á»Łi": 6409,
      "Ġviá»ģn": 6410,
      "Ġváº©y": 6411,
      "Ġsáº¥p": 6412,
      "Ġtá»ĥ": 6413,
      "ĠCÃłn": 6414,
      "NgÃ¢n": 6415,
      "Ġphá»ī": 6416,
      "Khanh": 6417,
      "MÃ¡u": 6418,
      "kÃ´": 6419,
      "Ġáº¡t": 6420,
      "ĠMiá»ģn": 6421,
      "ĠStalin": 6422,
      "ĠvÃłn": 6423,
      "Ġlá»¥t": 6424,
      "ĠthÃªnh": 6425,
      "tre": 6426,
      "nÃ³": 6427,
      "ĠcÃ²m": 6428,
      "ĠlÃ£i": 6429,
      "ĠgÃ¡n": 6430,
      "Ġdáº¥n": 6431,
      "ĠkhÃł": 6432,
      "ĠThuá»·": 6433,
      "Triá»ģu": 6434,
      "ĠDoanh": 6435,
      "my": 6436,
      "Ġmo": 6437,
      "Ġlá»£p": 6438,
      "ĠnhoÃłi": 6439,
      "-ri": 6440,
      ";S": 6441,
      "LÃ¡": 6442,
      "rie": 6443,
      "ĠchÆ°á»Ŀng": 6444,
      "Ġná»ĩn": 6445,
      "Ġki": 6446,
      "Ġná»±c": 6447,
      "Ġtuáº¥n": 6448,
      "ĠkhoÃ¡ng": 6449,
      "Ġgá»«": 6450,
      "Ġngá»į": 6451,
      "Ġquáº·c": 6452,
      "ĠCá»ĳ": 6453,
      "-h": 6454,
      "ĠngÃ²i": 6455,
      "ĠTáºŃp": 6456,
      "ĠMÃ£n": 6457,
      "Ġnhá»ĩn": 6458,
      "Cháº¡y": 6459,
      "ĠÄĳÆ°á»£m": 6460,
      "ĠlÃªnh": 6461,
      "ĠBÃłi": 6462,
      "ĠNgÃ´n": 6463,
      "âĢľAnh": 6464,
      "Ġnghá»ĭu": 6465,
      "Hiá»ģn": 6466,
      "ĠlÆ¡n": 6467,
      "Ġgáº«y": 6468,
      "ĠBe": 6469,
      "les": 6470,
      "Ġhá»ķi": 6471,
      "Ġáº¢nh": 6472,
      "Ġlá»¯": 6473,
      "Ġnháºµn": 6474,
      "Ġdá»ĵi": 6475,
      "ĠPr": 6476,
      "ĠGÃ£": 6477,
      ";Náº¿u": 6478,
      "ĠthÃ²i": 6479,
      "Ġxá»īa": 6480,
      "tÃ´": 6481,
      "Ġte": 6482,
      "Ġmáº£y": 6483,
      "ĠkhÃ©t": 6484,
      "ĠtoÃ©t": 6485,
      ".HÃ´m": 6486,
      "á»ģn": 6487,
      "ĠMay": 6488,
      "ĠtÃ³e": 6489,
      "enne": 6490,
      "ThÃ´ng": 6491,
      "ħnh": 6492,
      "ĠVá»įng": 6493,
      ".TrÃªn": 6494,
      "VÃµ": 6495,
      "ub": 6496,
      "ģu": 6497,
      "Ġsáº¯n": 6498,
      "ĠQuÃŃ": 6499,
      "ĠTá»īnh": 6500,
      "ĠmÃ¬n": 6501,
      "Ġláº¿t": 6502,
      "ĠtrÆ°á»Ľng": 6503,
      "Ġbá»ĩt": 6504,
      "Ġphao": 6505,
      "Ġniu": 6506,
      "nt": 6507,
      "Ġbung": 6508,
      "Khang": 6509,
      "nÃ³i": 6510,
      "tá»©c": 6511,
      "Ġkhay": 6512,
      "Ġbá»¥c": 6513,
      "ĠHiá»ĩn": 6514,
      "ÄĲáº·c": 6515,
      "Ġbá»Ļn": 6516,
      "ĠThá»¥": 6517,
      "Ġgáº·m": 6518,
      "Ġxay": 6519,
      "hÃ¡n": 6520,
      "ĠAng": 6521,
      "-th": 6522,
      "ĠNgá»¥y": 6523,
      "ĠtÃ¡p": 6524,
      "ĠcÃłu": 6525,
      "Ġngai": 6526,
      "Ġráº¡c": 6527,
      "ĠTiáº¿u": 6528,
      "ĠTrÃ£i": 6529,
      "Ġvá»ĭnh": 6530,
      "ĠSÃłigÃ²n": 6531,
      "Ġyáº¿t": 6532,
      "ĠThÃ¡p": 6533,
      "cÆ¡": 6534,
      "tin": 6535,
      "Ġcá»ıi": 6536,
      "ĠTá»Ļi": 6537,
      "ĠCr": 6538,
      "Ġkháº©y": 6539,
      "ĠMá»µ": 6540,
      "Bá»ĩnh": 6541,
      "Ġcháº£o": 6542,
      "ĠlÅ©i": 6543,
      "MÃłu": 6544,
      "Ġmá»ĩ": 6545,
      "Trá»įng": 6546,
      "lor": 6547,
      "ĠChiá»ģu": 6548,
      "ĠChá»©": 6549,
      "ĠnÃµ": 6550,
      "ĠnhÃºm": 6551,
      "Ġxáº¡o": 6552,
      "ĠháºŃm": 6553,
      "Kha": 6554,
      "Huá»ĩ": 6555,
      "ĠmáºŃn": 6556,
      "ĠxÃ²a": 6557,
      "Ġtáº¯p": 6558,
      "Ġbáº¹p": 6559,
      "Thiá»ĩt": 6560,
      ".VÃ´": 6561,
      "cÃ²n": 6562,
      "sao": 6563,
      "ĠtÆ°Æ¡m": 6564,
      "Ġloanh": 6565,
      "ĠTá»Ľ": 6566,
      "ÃĤm": 6567,
      "-li": 6568,
      "ĠtrÆ°á»Ŀn": 6569,
      "ĠrÃ´": 6570,
      "ĠrÃ©": 6571,
      "Ġlá»µ": 6572,
      "end": 6573,
      "____": 6574,
      "ĠDá»ĭ": 6575,
      "elle": 6576,
      "ÃĲá»ĥ": 6577,
      "TÃ¬m": 6578,
      "ĠlÃ£": 6579,
      "ĠnhÃ¡p": 6580,
      "ĠquÃ¨": 6581,
      "Ġthá»ĭch": 6582,
      "ĠLÃ£": 6583,
      "me": 6584,
      "áºł": 6585,
      "ĠnáºŃp": 6586,
      "Ġhon": 6587,
      "ĠTR": 6588,
      "ĠgiÃ£y": 6589,
      "ĠÃĶn": 6590,
      "ĠFranc": 6591,
      "Háº³n": 6592,
      "Sang": 6593,
      "ĭn": 6594,
      "Ġxá»Ļc": 6595,
      "Ġtua": 6596,
      "ĠHol": 6597,
      "Ġviá»ĩt": 6598,
      "ĠTrÃłng": 6599,
      "ĠMá»ĩnh": 6600,
      "ĠCá»«u": 6601,
      ".Má»įi": 6602,
      ";Máº¹": 6603,
      "TÆ°á»Ľng": 6604,
      "hÃŃ": 6605,
      "Ġnhen": 6606,
      "ĠLá»Ŀi": 6607,
      "Chao": 6608,
      "Ġthun": 6609,
      "ĠQua": 6610,
      "ĠquÃ¡ch": 6611,
      "oirot": 6612,
      "Ġkhá»ıa": 6613,
      ".NÃ³": 6614,
      "ko": 6615,
      "Ġsá»į": 6616,
      "Ġphone": 6617,
      "ĠDe": 6618,
      "):": 6619,
      "Cu": 6620,
      "Loan": 6621,
      "Ġáº¿": 6622,
      "Ġmuá»ĳng": 6623,
      "ĠnhÅ©ng": 6624,
      "Ġdáº±ng": 6625,
      "Ġxá»ĳi": 6626,
      "ĠHÃ£n": 6627,
      "Ġcháº·ng": 6628,
      "ast": 6629,
      "Ġtá»īa": 6630,
      "ĠÄĳáº½o": 6631,
      ";ThÃ´i": 6632,
      "TÃº": 6633,
      "á»Ĳ": 6634,
      "Quáº§n": 6635,
      "Ġcháº¡c": 6636,
      "ĠxoÃłi": 6637,
      ".R": 6638,
      "ber": 6639,
      "sh": 6640,
      "ĠTiáº¿t": 6641,
      "ĠÄĲá»Ŀi": 6642,
      "PháºŃt": 6643,
      "ĠFrank": 6644,
      "ĠCÃł": 6645,
      "Lá»Ľp": 6646,
      ".NÄĥm": 6647,
      "Biá»ĥn": 6648,
      "QuyÃªn": 6649,
      "Ġveo": 6650,
      "Ġgiáº¿m": 6651,
      "Ġráº§n": 6652,
      "ĠCuá»Ļc": 6653,
      "ĠCol": 6654,
      "ĠPa": 6655,
      "ĠII": 6656,
      "Ġgiáº§u": 6657,
      "ĠJe": 6658,
      "ĠTáº£": 6659,
      "Tiáº¿c": 6660,
      "land": 6661,
      "za": 6662,
      "ĠCo": 6663,
      "HÃ³a": 6664,
      "Ġláº·t": 6665,
      "ĠxÆ¡i": 6666,
      "ĠBÃ´ng": 6667,
      "ĠÄĲÃłm": 6668,
      "Má»¥c": 6669,
      "Ġlá»ĭnh": 6670,
      "ĠTrÆ°ng": 6671,
      "ĠLuáºŃn": 6672,
      "Ġmuá»Ĺng": 6673,
      ".,": 6674,
      ".VÃ¬": 6675,
      "ame": 6676,
      "Tá»ķng": 6677,
      "ĠÃ¡ng": 6678,
      "Ġtiá»ĩt": 6679,
      "ĠmÆ°á»Ŀng": 6680,
      "ĠÄĲáº¥y": 6681,
      "Ġá»·": 6682,
      "rist": 6683,
      "Máº¥t": 6684,
      "ĠÄĳá»įa": 6685,
      "ĠxÃ¡t": 6686,
      "Ġthá»ĳc": 6687,
      "ĠcÃ¡p": 6688,
      "ĠDon": 6689,
      "Chá»Ľ": 6690,
      ";qu": 6691,
      "ĠMor": 6692,
      "uá»Ľc": 6693,
      "Äĳa": 6694,
      "ille": 6695,
      ".SÃ¡ng": 6696,
      "Táº§n": 6697,
      "Ġsáº£o": 6698,
      "ĠrÃły": 6699,
      "ĠSen": 6700,
      "Ġloan": 6701,
      "Ġxoáº¯n": 6702,
      "ose": 6703,
      "-há»": 6704,
      "Cáº§u": 6705,
      "SÃ¡ch": 6706,
      "Ġá»¨": 6707,
      "MÃ¢y": 6708,
      "ĠcÃ¹i": 6709,
      "Ġcáº©u": 6710,
      "ĠSe": 6711,
      "Ġtá»ĳp": 6712,
      "ĠDavid": 6713,
      "ĠRobert": 6714,
      "HÃ²a": 6715,
      "Ġdim": 6716,
      "ĠVÃº": 6717,
      "ĠQuÃ¡i": 6718,
      "din": 6719,
      "ĠbÃ¡ng": 6720,
      "Ġsáº¥u": 6721,
      "á»Ķ": 6722,
      "Ġtrá»ĳi": 6723,
      "ĠÄĳá»Ł": 6724,
      "ĠTim": 6725,
      "Ġcháº¯t": 6726,
      "Ġngoáº¯t": 6727,
      "ĠQuáºŃn": 6728,
      "Ġláº½n": 6729,
      "iss": 6730,
      "á»Ĺ": 6731,
      "Ġnáº»": 6732,
      "Ġquá»µ": 6733,
      "ĠBá»ĭ": 6734,
      "BÃ¡o": 6735,
      "Ġváº±ng": 6736,
      "ĠphÃŃm": 6737,
      "Chá»¯": 6738,
      "Ġáº£m": 6739,
      "ĠkÃ©n": 6740,
      "Ġmá»§": 6741,
      "Chuyáº¿n": 6742,
      "Ġáºµm": 6743,
      "Ġnang": 6744,
      "Ġ?âĢĿ": 6745,
      "rid": 6746,
      "ĠtÃłnh": 6747,
      "Ġgang": 6748,
      "Ġrinh": 6749,
      "Ġxá»Ľi": 6750,
      "Ġbáº½n": 6751,
      "Ãĵ": 6752,
      ";th": 6753,
      ".Mai": 6754,
      ".Giá»įng": 6755,
      "Ġgá»Ł": 6756,
      "Ġá»©": 6757,
      "ĠnhÅ©n": 6758,
      "Ná»¯": 6759,
      "Ġthen": 6760,
      "ĠthÃ²ng": 6761,
      "ĠMáº¯t": 6762,
      "Ġchá»£p": 6763,
      "ĠMá»Ĺi": 6764,
      "ĠKhá»Łi": 6765,
      "áº¾": 6766,
      "ĠLiá»ĩt": 6767,
      "Ġphá»Ŀ": 6768,
      "ChiÃªu": 6769,
      ".BÃ¢y": 6770,
      "oOo": 6771,
      "ĠnhÄĥng": 6772,
      "ĠhÅ©": 6773,
      "Ġlá»£m": 6774,
      "ĠÃ©o": 6775,
      "ĠsÅ©ng": 6776,
      "hÃ´m": 6777,
      "TrÆ°a": 6778,
      "áº¢nh": 6779,
      "Ha": 6780,
      "uz": 6781,
      "ĠbÃµ": 6782,
      "Ã´p": 6783,
      "Ġhá»«ng": 6784,
      "Ġphá»ĭch": 6785,
      "Loáº¡i": 6786,
      "Ġmáº©n": 6787,
      "ĠnhÃºt": 6788,
      "Ġnháº·n": 6789,
      "ĠHon": 6790,
      "ĠDá»ĭch": 6791,
      "ternet": 6792,
      "-S": 6793,
      "Ġliáº¿ng": 6794,
      "ĠlÃµm": 6795,
      "ĠBinh": 6796,
      "ĠNgÃł": 6797,
      "Ġrá»£": 6798,
      "tor": 6799,
      "ĠmÆ°Æ¡ng": 6800,
      "ĠmÃ¨": 6801,
      "ĠKáº¿": 6802,
      "...,": 6803,
      "Ġphá»§i": 6804,
      "Ġkhoáº£i": 6805,
      "Ġgá»«ng": 6806,
      "Ġquyá»ĩn": 6807,
      "ĠbÃŃch": 6808,
      "ĠgÄĥng": 6809,
      "hÃ¡ng": 6810,
      "ĠKi": 6811,
      "HÃ¢n": 6812,
      "pháº£i": 6813,
      "ĠMáº«u": 6814,
      "ĠMad": 6815,
      ".NhÆ°": 6816,
      "ĠÄĳun": 6817,
      "Ġvá»£i": 6818,
      "ĠkhÆ°": 6819,
      "ĠKÃ¬a": 6820,
      "ĠAlex": 6821,
      "ĠlÃ¡u": 6822,
      "khi": 6823,
      "Ġhá»¥c": 6824,
      "ĠNghiá»ĩp": 6825,
      "ĠnÃµn": 6826,
      "Ly": 6827,
      "ĠNiÃªn": 6828,
      "ĠGÃ¡i": 6829,
      "ĠbÃ©t": 6830,
      "ĠXem": 6831,
      ".ÄĲÃªm": 6832,
      ";VáºŃy": 6833,
      "Ġbáº¥u": 6834,
      "Ġchá»Ľi": 6835,
      "Ġsá»¡": 6836,
      "enn": 6837,
      "Ġxuáº©n": 6838,
      "Ġá»¦y": 6839,
      "Ġmáº¥p": 6840,
      "ĠnÃ¡": 6841,
      "Ġnáº·n": 6842,
      "ĠLÆ°": 6843,
      "ĠGiÃª": 6844,
      "ĠÃļc": 6845,
      "ĠdáºŃm": 6846,
      "ĠTang": 6847,
      "ĠCang": 6848,
      "Niá»ģm": 6849,
      "ĠLÃ£ng": 6850,
      "Má»£": 6851,
      "ChÃŃ": 6852,
      "Hy": 6853,
      "Vá»ĳn": 6854,
      "ward": 6855,
      "ngton": 6856,
      "Ġteo": 6857,
      "Ġcá»Ļi": 6858,
      "Ġláº¡ch": 6859,
      "ĠmÃµm": 6860,
      "ĠkiÃªng": 6861,
      "ĠrÃª": 6862,
      "ĠrÃ£nh": 6863,
      "ĠDiÃªn": 6864,
      "Ġngháº¿ch": 6865,
      "cy": 6866,
      "Ġbon": 6867,
      "ĠngÃ¡i": 6868,
      "ĠhÆ°Æ¡u": 6869,
      "ĠQuáº£n": 6870,
      "ĠNhiá»ģu": 6871,
      "ÃĲÃ£": 6872,
      "-ph": 6873,
      ";ChÃºng": 6874,
      "CÃºc": 6875,
      "ĠuyÃªn": 6876,
      ".ThÃ¡i": 6877,
      "lip": 6878,
      "Tuáº§n": 6879,
      "ĠtrÃ¡o": 6880,
      "ĠTáº¡o": 6881,
      "ĠMe": 6882,
      "Ġthoang": 6883,
      "ĠXuyáº¿n": 6884,
      "Thá»§": 6885,
      "ĠLuáºŃt": 6886,
      "Ġdáº«y": 6887,
      "ĠthÃŃa": 6888,
      "ĠMu": 6889,
      "SÆ°Æ¡ng": 6890,
      "chá»ĭ": 6891,
      "gar": 6892,
      "ĠÃ¹n": 6893,
      "ĠTay": 6894,
      "Ġphiá»ĩn": 6895,
      ".Máº¹": 6896,
      "Ġtráº±n": 6897,
      "ĠÄĲá»ı": 6898,
      "á»¡": 6899,
      "ĠrÃºm": 6900,
      "ĠThuyá»ģn": 6901,
      "Ġcá»«": 6902,
      "Ġmá»įng": 6903,
      "Ġtrá»Ľn": 6904,
      "ĠsoÃ¡i": 6905,
      "Ġbá»ĩch": 6906,
      "Ġliá»ĩng": 6907,
      "ĠlÃ©p": 6908,
      "ĠngÃ³t": 6909,
      "ĠdáºŃt": 6910,
      "ĠHiá»ĩu": 6911,
      "ĠLÃªn": 6912,
      "Ġphá»Ľi": 6913,
      "isa": 6914,
      "........": 6915,
      "?!": 6916,
      "Máº«n": 6917,
      "tt": 6918,
      "Ġbáº¿t": 6919,
      "ThÃł": 6920,
      "ÃĲÃªm": 6921,
      ".G": 6922,
      "Ġoi": 6923,
      "ĠsiÃªng": 6924,
      "Ã©on": 6925,
      "ÄĲau": 6926,
      "Ġkhá»īnh": 6927,
      "Tháº©m": 6928,
      "ĠhÃºi": 6929,
      "Báº§u": 6930,
      "mer": 6931,
      "ĠBu": 6932,
      "Ġtáº¡nh": 6933,
      "Ġdáº³ng": 6934,
      "Ġvá»Ŀn": 6935,
      "ĠLÃłnh": 6936,
      "ĠBiá»ĥn": 6937,
      "Ngoáº¡i": 6938,
      "-ta": 6939,
      ".NhÃ¬n": 6940,
      ";Ta": 6941,
      "Cung": 6942,
      "TÃ¹ng": 6943,
      "máº¹": 6944,
      "Ġthau": 6945,
      "uya": 6946,
      "ont": 6947,
      "ĠNap": 6948,
      "Ġná»¯áº¡": 6949,
      "ĠTham": 6950,
      "ĠNgá»ĵi": 6951,
      "ĠlÅ©y": 6952,
      ".Thanh": 6953,
      ".CÃ¡c": 6954,
      "TÃłi": 6955,
      "ĠVÅ©ng": 6956,
      "ĠVá»ĭnh": 6957,
      "Nga": 6958,
      "ĠtÃºp": 6959,
      "ĠváºŃ": 6960,
      "Ã¬n": 6961,
      "Ġquáº»": 6962,
      "TrÃ¢m": 6963,
      "chÃ": 6964,
      "ĠbÆ¡m": 6965,
      "ĠthÃ¬a": 6966,
      "ĠNgÆ°": 6967,
      "Ġkháº¿": 6968,
      "ĠsuÃ´ng": 6969,
      "ĠWilliam": 6970,
      "Ġuyá»ĥn": 6971,
      "Ġtáº¯n": 6972,
      "Ġnguá»µ": 6973,
      "ĠhÆ¡": 6974,
      "ÄĲá»ĩ": 6975,
      ".HÃł": 6976,
      "ÃĤu": 6977,
      ".***": 6978,
      "RÆ°á»£u": 6979,
      "Sá»©c": 6980,
      "ax": 6981,
      "Ġi": 6982,
      "Ġráº¡o": 6983,
      "ĠVan": 6984,
      "ÄĲÃ¡nh": 6985,
      "ĠSá»©": 6986,
      "ĠThÃ¡o": 6987,
      "Ġbá»ĭp": 6988,
      "ble": 6989,
      "ĠmÃ¢n": 6990,
      "Ġchá»Ľm": 6991,
      "Ġbá»±": 6992,
      "ĠBen": 6993,
      "han": 6994,
      "Ġváº¹t": 6995,
      "ĠxÃµa": 6996,
      "Ġkhang": 6997,
      "ĠNgá»Ļ": 6998,
      "ĠoÃł": 6999,
      "âĢĻ.": 7000,
      "ĠCá»©u": 7001,
      "Uyá»ĥn": 7002,
      "ĠnhÃ²m": 7003,
      "ĠcÃ¡ng": 7004,
      "ĠMal": 7005,
      "ĠĠĠĠĠĠĠĠĠĠĠĠ": 7006,
      ";K": 7007,
      ";BÃł": 7008,
      "ĠngÃ´ng": 7009,
      "ĠHÆ°á»Ŀng": 7010,
      "inc": 7011,
      "ĠQuÃ¡": 7012,
      "ĠQuáº§n": 7013,
      "ĠLoui": 7014,
      "Iá»": 7015,
      "Lam": 7016,
      "ĠngÆ°á»Ŀ": 7017,
      "ĠngÃ¡ch": 7018,
      "Ġtrá»įi": 7019,
      "ÄĳÆ°á»£c": 7020,
      "ĠTÃºy": 7021,
      ".Kim": 7022,
      "tháº¿": 7023,
      ",t": 7024,
      "ĠlÃ²i": 7025,
      "Ġnhem": 7026,
      "ĠcÃ³ng": 7027,
      "ĠnhÃłm": 7028,
      "Nhanh": 7029,
      "ĠDáº§n": 7030,
      "Tráº»": 7031,
      "ĠNháºŃm": 7032,
      "Hiá»ĥn": 7033,
      "Mau": 7034,
      "ĠlÃ¡n": 7035,
      "ĠrÃ¡p": 7036,
      "ĠlÃłu": 7037,
      "NgÃ´": 7038,
      "ĠloÃ©": 7039,
      "Kháº£": 7040,
      "-Nam": 7041,
      ".J": 7042,
      "ji": 7043,
      "Ġtáº¡ng": 7044,
      "ĠmÃµ": 7045,
      "ĠxiÃªn": 7046,
      "Ġpháº¿t": 7047,
      "ĠphÃłng": 7048,
      "Hu": 7049,
      "Ġinh": 7050,
      "ĠTai": 7051,
      "Ġdá»¡": 7052,
      "TrÃŃ": 7053,
      "-a": 7054,
      ".Gi": 7055,
      "?BÃł": 7056,
      "Ŀm": 7057,
      "ĠBÃ¢n": 7058,
      "Æ°á»¡n": 7059,
      "Thá»Ń": 7060,
      "Lá»ĩ": 7061,
      "?.": 7062,
      "Diá»ĩp": 7063,
      "Viáº¿t": 7064,
      "áº¦": 7065,
      "Ġtráº«m": 7066,
      "ĠBÃłng": 7067,
      "ĠThÆ¡m": 7068,
      ".PhÆ°Æ¡ng": 7069,
      "LÃłng": 7070,
      "Ġá»ĳ": 7071,
      "Ġcáº·n": 7072,
      "ĠbÃŃt": 7073,
      "ĠHe": 7074,
      "ĠMc": 7075,
      "Ġkhá»ĳ": 7076,
      "ĠtÃŃu": 7077,
      "ĠCath": 7078,
      "ĠÄĲÃ´i": 7079,
      "Ġkhá»©a": 7080,
      "ĠHoÃłnh": 7081,
      "ÃĲÃ¢y": 7082,
      ";tháº": 7083,
      "lad": 7084,
      "ĠngÃ²": 7085,
      "ĠKar": 7086,
      "ĠDÄ©nh": 7087,
      "ĠGer": 7088,
      "Ġkhuá»·": 7089,
      "ĠthÃºt": 7090,
      "Ġxá»ĩch": 7091,
      "ĠHá»©a": 7092,
      ".Em": 7093,
      ".Tháº±ng": 7094,
      "mes": 7095,
      "Ġdz": 7096,
      "ĠthÃµng": 7097,
      "ani": 7098,
      "ĠHÆ°á»Ľng": 7099,
      "Trá»«": 7100,
      "Ġrá»ı": 7101,
      "Ġrá»Ŀ": 7102,
      "ary": 7103,
      "Thá»©c": 7104,
      "ĠdÃ´ng": 7105,
      "Ġbáº£nh": 7106,
      "ĠXanh": 7107,
      "Ġghá»": 7108,
      "Ġngá»Ńng": 7109,
      "ĠsÃ¡p": 7110,
      "ĠRá»«ng": 7111,
      ".Ngay": 7112,
      "vá»Ľi": 7113,
      "ĠTui": 7114,
      "á»įp": 7115,
      "ÄĲÄĥng": 7116,
      "ĠâĢŀ": 7117,
      "Ġká»ģnh": 7118,
      "Ġoanh": 7119,
      "ah": 7120,
      "ĠÃ¡ch": 7121,
      "Ġcá»¥i": 7122,
      "ĠBÆ°á»Ŀng": 7123,
      "ĠSá»ĳ": 7124,
      "ĠNgao": 7125,
      "ĠâĢ¦.": 7126,
      "DuyÃªn": 7127,
      "ĠmiÃªu": 7128,
      "Ġbai": 7129,
      "Ġgiáº«m": 7130,
      "Ġquáº§ng": 7131,
      "ĠNgÃ£": 7132,
      "Ġháº¡m": 7133,
      "Ġquá»ĩt": 7134,
      "ĠtÃ²ng": 7135,
      "ĠnÃª": 7136,
      "ĠngÃ³c": 7137,
      "ĠViáº¿t": 7138,
      "ĠTrÄĥng": 7139,
      "Láº¡y": 7140,
      "á»¦": 7141,
      "Ġsal": 7142,
      "Ġsáº¡p": 7143,
      "ĠthÆ¡i": 7144,
      "ĠHoáº¡t": 7145,
      ");": 7146,
      "chÃºng": 7147,
      "Ġáº¯ng": 7148,
      "ott": 7149,
      "ĠnguÃ½t": 7150,
      "use": 7151,
      "ĠDá»¥c": 7152,
      ";CÃ¡i": 7153,
      "xin": 7154,
      "Ġcáº·m": 7155,
      "-na": 7156,
      "Ġkhuá»·u": 7157,
      "CS": 7158,
      "á»Ľ": 7159,
      "ĠmÃºt": 7160,
      "ĠnÃ¡u": 7161,
      "Ġhá»īnh": 7162,
      "ĠÄĲáº¯c": 7163,
      "Ġphá»ĭu": 7164,
      "ĠhÃ¡ch": 7165,
      "age": 7166,
      ".X": 7167,
      "oe": 7168,
      "ĠnÃ¡n": 7169,
      "ĠKH": 7170,
      "ile": 7171,
      "Ġchá»Ļt": 7172,
      "TÃ´": 7173,
      "mi": 7174,
      "uc": 7175,
      "nhÃł": 7176,
      "ĠlÆ¡i": 7177,
      "ĠnhÃ¡i": 7178,
      "ĠThe": 7179,
      "Ġtrá»Ĺi": 7180,
      "Æ¯á»Ľc": 7181,
      "láº¡i": 7182,
      "ĠvÃ©o": 7183,
      "Ġxáº¡c": 7184,
      "Ġsá»ĳc": 7185,
      "Tháº¯ng": 7186,
      "und": 7187,
      ".Thu": 7188,
      "Ãģo": 7189,
      "Ġcáº¯c": 7190,
      "Ġmá»©t": 7191,
      "ĠCoi": 7192,
      "ĠChÃ¹a": 7193,
      "ĠJac": 7194,
      ".VÆ°Æ¡ng": 7195,
      "Ġgiáº»": 7196,
      "ĠBer": 7197,
      "Ġnhá»«": 7198,
      "ĠthoÄĥn": 7199,
      "ĠHuÃª": 7200,
      "ThÃŃ": 7201,
      ";Má»Ļt": 7202,
      "Rá»ĳt": 7203,
      "ps": 7204,
      "ĠtÃªnh": 7205,
      "Ġcháº»": 7206,
      "Ġ-&": 7207,
      "Ġlá»¥i": 7208,
      "ĠGre": 7209,
      "ĠXÃ¡": 7210,
      ".Bá»įn": 7211,
      "ĠWal": 7212,
      "Há»Ļi": 7213,
      "ham": 7214,
      "ĠnhÃ³n": 7215,
      "ĠHa": 7216,
      "Ġsá»įc": 7217,
      "ĠMÃ¨o": 7218,
      "ĠVá»¥": 7219,
      "ĠNgÆ°u": 7220,
      "Ġná»Ľi": 7221,
      "QuÃª": 7222,
      "ĠAb": 7223,
      "ÃĲÃ´i": 7224,
      "ĠCá»¥c": 7225,
      "CÆ°á»Ŀi": 7226,
      "ona": 7227,
      "âĢľEm": 7228,
      "Ġsoáº¡t": 7229,
      ";ThÆ°a": 7230,
      "Ġlá»ĵi": 7231,
      "ĠdÃµng": 7232,
      "Ġchá»¥m": 7233,
      "ĠTiá»ĩp": 7234,
      "ĠCor": 7235,
      "ĠKhÃ³": 7236,
      "Ġchá»ĭt": 7237,
      "ois": 7238,
      "-gi": 7239,
      "Suy": 7240,
      "uáº¥t": 7241,
      "Ġ=": 7242,
      "Ġcáº§y": 7243,
      "Ġko": 7244,
      "ĠTÆ°á»Ľc": 7245,
      "ĠHáº¡ng": 7246,
      "ata": 7247,
      "ĠThuáºŃt": 7248,
      "ThÃº": 7249,
      "ĠrÆ°á»Ľi": 7250,
      "ĠTÆ¡": 7251,
      "ĠMÆ°a": 7252,
      "ĠÃĲá»ĭnh": 7253,
      "-Anh": 7254,
      "HÃłn": 7255,
      "ker": 7256,
      "Æ¡c": 7257,
      "ĠMáº¡ng": 7258,
      ".Cuá»ĳi": 7259,
      "ĠnhuáºŃn": 7260,
      "Phá»ĳ": 7261,
      ";h": 7262,
      "Danh": 7263,
      "gn": 7264,
      "go": 7265,
      "ĠÄĳÃ´n": 7266,
      "her": 7267,
      "uin": 7268,
      "á»ħ": 7269,
      "ĠlÃ³i": 7270,
      "ĠÄĲÆ°Æ¡ng": 7271,
      "Ġbar": 7272,
      "âĢľ.": 7273,
      "ĠchÃ¬u": 7274,
      "uel": 7275,
      "Ġnhá»ĳi": 7276,
      "Ġsáº£i": 7277,
      "Ġngá»£p": 7278,
      "ĠSá»£": 7279,
      "Ġáº¨n": 7280,
      ",...": 7281,
      "Huá»ĳng": 7282,
      "TiÃªn": 7283,
      "ĠnÃºm": 7284,
      "ĠTÃ¡": 7285,
      "ĠgiÅ©": 7286,
      "hÃ¬nh": 7287,
      "ĠThÃ¡ng": 7288,
      "ure": 7289,
      ".CÅ©ng": 7290,
      ";Chá»ĭ": 7291,
      "Dáº§u": 7292,
      "TÃ¡m": 7293,
      "ĠMel": 7294,
      "ĠThiá»ĩt": 7295,
      "ĠTre": 7296,
      "ĠRon": 7297,
      "ĠJim": 7298,
      "Vui": 7299,
      "uá»Ļt": 7300,
      "ĠnÃ´i": 7301,
      "ĠnÃ²ng": 7302,
      "Ġtá»ıi": 7303,
      "ÄĲÆ¡n": 7304,
      "Ġngoáº±n": 7305,
      "ĠloÃ£ng": 7306,
      "Ġmá»įt": 7307,
      "Cá»§a": 7308,
      "Ġnanh": 7309,
      "ĠTÃ¹y": 7310,
      "Ġsá»©t": 7311,
      "ĠLá»±u": 7312,
      "ĠHoÃ¡": 7313,
      "ĠsÃłi": 7314,
      ".....": 7315,
      "ĠSÃ´ng": 7316,
      ".ÄĲÃ³": 7317,
      "bert": 7318,
      "Ġláº©y": 7319,
      "ĠHannibal": 7320,
      "ĠVáº«n": 7321,
      "ĠÄĲÆ¡n": 7322,
      "ite": 7323,
      ";con": 7324,
      "Ġxáº»o": 7325,
      "pe": 7326,
      "Ġláº¥t": 7327,
      "Ġdá»ĥ": 7328,
      "ĠPH": 7329,
      "Ġtháº£nh": 7330,
      "!!!": 7331,
      "ĠGeorge": 7332,
      "Quyá»ģn": 7333,
      "ĠchÆ¡n": 7334,
      "Ġbá»ĭu": 7335,
      "att": 7336,
      "ise": 7337,
      "ĠsÃ¬": 7338,
      "Ãªt": 7339,
      "Ġxang": 7340,
      "Ġtháº§u": 7341,
      "Tháº¥t": 7342,
      "ĠGiÃł": 7343,
      "oshi": 7344,
      "Ġngháº½": 7345,
      "?CÃ´": 7346,
      "Ġtau": 7347,
      "ĠMos": 7348,
      "ĠGÃ²": 7349,
      "ĠhÃºp": 7350,
      "chael": 7351,
      "Harry": 7352,
      "ĠÄĳay": 7353,
      "Ġláº¡m": 7354,
      "Ġdiá»ħu": 7355,
      "Ġthá»¥p": 7356,
      "ÄĲÃ¨n": 7357,
      "ĠkhÃŃt": 7358,
      "ĠMichael": 7359,
      "NghiÃªm": 7360,
      "----------------": 7361,
      "Ãļt": 7362,
      "MÃ¡y": 7363,
      "do": 7364,
      "the": 7365,
      "ĠÄĳáº±m": 7366,
      "Ġváº¡m": 7367,
      "Ġbá»£": 7368,
      "ÄĲÆ°Æ¡ng": 7369,
      "Ġháº¡c": 7370,
      "ĠkhoÃ©t": 7371,
      ".ThÃ": 7372,
      "Ġrá»ĵá»ĭ": 7373,
      ".Máº¥y": 7374,
      "?âĢĿ,": 7375,
      "Ġdáº¥y": 7376,
      "ĠchÃºm": 7377,
      "ĠDiÃªm": 7378,
      "ĠChinh": 7379,
      "KhÃ¡c": 7380,
      ".TháºŃt": 7381,
      "ĠThá»ĥ": 7382,
      "ĠAnna": 7383,
      ".á»ŀ": 7384,
      "Ca": 7385,
      "nie": 7386,
      "ĠTáº§m": 7387,
      "ĠBáº¡c": 7388,
      "ĠNgáº§n": 7389,
      "Ġcá»©t": 7390,
      ".Báº¡ch": 7391,
      "-tÃ´": 7392,
      "Lá»Ľn": 7393,
      "TÆ°Æ¡ng": 7394,
      "UY": 7395,
      "ĠPat": 7396,
      "TráºŃn": 7397,
      "ĠMá»«ng": 7398,
      "Ġuáº¿": 7399,
      "ily": 7400,
      "ĠlÃ²e": 7401,
      "Ġgá»įng": 7402,
      "Ġcá»ĵm": 7403,
      "ĠquÄĥn": 7404,
      "ĠLao": 7405,
      "ÄĲáº·t": 7406,
      "ĠKáº»": 7407,
      "ĠSim": 7408,
      "ĠkhoÃ¡n": 7409,
      "ĠTháº¡nh": 7410,
      "ĠPhÃłn": 7411,
      ".Thiáº¿u": 7412,
      "arah": 7413,
      "Sáº¯p": 7414,
      "hen": 7415,
      "ĠchÃ²ng": 7416,
      "ĠBá»ĵng": 7417,
      "Ġuáº©n": 7418,
      "ThÃŃch": 7419,
      "Thuá»Ł": 7420,
      "ĠchÃ´ng": 7421,
      "ĠmÃ£ng": 7422,
      "Ġná»įc": 7423,
      "Ġgiá»¥a": 7424,
      "ĠHel": 7425,
      "ĠRáº¡ch": 7426,
      "Ġ...âĢĵ": 7427,
      "Ġháº»o": 7428,
      ";gi": 7429,
      "ski": 7430,
      "Ġváº¿": 7431,
      "Ġvali": 7432,
      "Ġsáº¯ng": 7433,
      "ĠxÃª": 7434,
      "Ġquáº±n": 7435,
      "ĠNgá»į": 7436,
      "Ġláº»o": 7437,
      "-ca": 7438,
      "ashington": 7439,
      ".Nh": 7440,
      "?Anh": 7441,
      "sa": 7442,
      "ĠÄĳÃ¡c": 7443,
      "ĠnÆ¡": 7444,
      "ĠÄĳá»į": 7445,
      "Ġtá»ĭt": 7446,
      "Thiáº¿t": 7447,
      "ÃĲi": 7448,
      ".CÃ¢u": 7449,
      "ĠÄĲá»Ļi": 7450,
      "ĠphÅ©": 7451,
      "ĠÃģo": 7452,
      "Ġxáº»ng": 7453,
      "Dá»ħ": 7454,
      "ĠÄĲá»ĳi": 7455,
      "ĠÄĲiá»ĥm": 7456,
      "Ġngá»Ĺng": 7457,
      "ĠAdam": 7458,
      "CÆ¡m": 7459,
      "ĠÄĳáº«n": 7460,
      "ĠPl": 7461,
      "ĠtuÃ½": 7462,
      "ella": 7463,
      "ĠTuáº§n": 7464,
      "yo": 7465,
      "ĠCá»±": 7466,
      "ĠBÃ´n": 7467,
      "ĠdÃ¹i": 7468,
      "-lÃ´": 7469,
      ".Vá»ģ": 7470,
      "Ġngáº¥n": 7471,
      "ĠhÆ°á»Ľc": 7472,
      "Ġcá»Ł": 7473,
      "ĠVui": 7474,
      "ĠTráº¯ng": 7475,
      "ĠChiáº¿c": 7476,
      "ĠhÃ¡m": 7477,
      "sen": 7478,
      "Â«": 7479,
      "Ġngáº¥u": 7480,
      "ĠÄĳá»Ľi": 7481,
      "ĠTs": 7482,
      "ĠNH": 7483,
      "ĠHáº£": 7484,
      "ĠhÃ£n": 7485,
      "Ġtoe": 7486,
      "ĠMá»ħ": 7487,
      ".ÄĲáº¡i": 7488,
      "ĠMin": 7489,
      "Ġphiáº¿m": 7490,
      "Tráº£": 7491,
      "ĠQuÃ¡t": 7492,
      ".TrÆ°Æ¡ng": 7493,
      "§m": 7494,
      "ĠáºŃm": 7495,
      "Ġmui": 7496,
      "Ġmuá»ĳt": 7497,
      "Ġrá»ĳn": 7498,
      "Ġquáº·n": 7499,
      "ĠCuá»ĳi": 7500,
      "ĠCáº©n": 7501,
      "ĠnghÄ©nh": 7502,
      "ĠkhuÃ¢y": 7503,
      "aki": 7504,
      "Al": 7505,
      "Diá»ĩu": 7506,
      "TÃłu": 7507,
      "ĠvÃ¡t": 7508,
      "oto": 7509,
      "ĠMÃ£o": 7510,
      "ĠkhÃ²": 7511,
      "ĠCháº¿": 7512,
      ";Dáº¡": 7513,
      "Kiáº¿m": 7514,
      "Ká»·": 7515,
      "nÃłng": 7516,
      "Ġháº¡ch": 7517,
      "ĠhÃ³m": 7518,
      "ennedy": 7519,
      "?LÃ£o": 7520,
      "ĠÆ°Æ¡i": 7521,
      "Ġsáº³n": 7522,
      "Ġhá»Ń": 7523,
      "ĠthÃ©": 7524,
      "Ġthá»ĳ": 7525,
      "ĠNÃºi": 7526,
      "ĠDÃ£": 7527,
      "Ġrá»©c": 7528,
      "ĠquyÃªn": 7529,
      "Ġ...&": 7530,
      ".Hoa": 7531,
      "MÃ£": 7532,
      "Ġon": 7533,
      "ĠTÃ³c": 7534,
      "ÄĲa": 7535,
      "Ġngá»«a": 7536,
      "ĠÄĳoáº£n": 7537,
      "ĠXa": 7538,
      "cháº³ng": 7539,
      ".Sá»±": 7540,
      "Láº¡c": 7541,
      "Ġ/": 7542,
      "Ġhá»Łi": 7543,
      "Ġngá»£": 7544,
      "ĠNgay": 7545,
      "ĠJane": 7546,
      ".Liá»ħu": 7547,
      "Cáº©m": 7548,
      "MiÃªn": 7549,
      "Ġmá»¥n": 7550,
      "Æ°Æ¡c": 7551,
      "ÄĲáº¹p": 7552,
      "ĠRom": 7553,
      "ĠNhiÃªu": 7554,
      "ĠCá»§a": 7555,
      "Ġá»ĳi": 7556,
      "Ġcáº¡p": 7557,
      "ĠgÄĥm": 7558,
      "Ġdiáº¿t": 7559,
      "Ġhoáº¯c": 7560,
      "ÄĲiá»ģn": 7561,
      "Ġnghá»ħ": 7562,
      "ĠNhÃ¢m": 7563,
      "Thá»ĭnh": 7564,
      "á»Ķng": 7565,
      "Ninh": 7566,
      "Ġxáº¹t": 7567,
      "ĠHáº¿t": 7568,
      "ÄĲÃłnh": 7569,
      "ĠDá»±c": 7570,
      "Ġcá»ĳm": 7571,
      "ĠkhuÃ¢n": 7572,
      "ity": 7573,
      "âĢĻ,": 7574,
      "bur": 7575,
      "ĠTÃ²a": 7576,
      "ĠVáºŃn": 7577,
      "ĠÄĲáº£o": 7578,
      "Ġná»©a": 7579,
      "ĠÄĲá»īnh": 7580,
      "ish": 7581,
      "its": 7582,
      ";MÃ¬nh": 7583,
      "ood": 7584,
      "ĠngÃ²m": 7585,
      "Ġgá»įt": 7586,
      "ĠSm": 7587,
      "enc": 7588,
      "thur": 7589,
      "ĠChuáº©n": 7590,
      "LuáºŃt": 7591,
      "?NgÆ°á»Ŀi": 7592,
      "DÃ¡ng": 7593,
      "ĠcáºŃt": 7594,
      "Ġkiá»ĥng": 7595,
      "ĠchÆ¡": 7596,
      "ĠCÃ²": 7597,
      "Ġboong": 7598,
      "ĠtÃ£": 7599,
      "ĠbÄĥm": 7600,
      "ĠkhoÃ©": 7601,
      "ĠÃĲáº¿": 7602,
      "ĠOr": 7603,
      "ĠWashington": 7604,
      "ione": 7605,
      "tháºŃt": 7606,
      "ex": 7607,
      "ĠNgÃ£i": 7608,
      "ĠTrÃ´ng": 7609,
      "era": 7610,
      "ĠLá»Ńa": 7611,
      "ĠCharles": 7612,
      "Ġá»Ĳi": 7613,
      "ĠJames": 7614,
      "Ġghá»ģnh": 7615,
      "-B": 7616,
      "MÃ´i": 7617,
      "ks": 7618,
      "Ġtrá»ĵ": 7619,
      "ĠTáº¥m": 7620,
      "ĠMil": 7621,
      "ĠÄĲoáº¡n": 7622,
      "ÄĲan": 7623,
      "ĠTrá»¥": 7624,
      "Ġtoi": 7625,
      "ĠlÃ¡y": 7626,
      "ĠNoel": 7627,
      ";há»": 7628,
      "ĠNick": 7629,
      "ĠBill": 7630,
      "ĠhÃ³ng": 7631,
      "ĠkhÃ¡nh": 7632,
      "Tráº§m": 7633,
      "ĠXÃŃch": 7634,
      "Ġoáº±n": 7635,
      ".Láº§n": 7636,
      ".DÆ°Æ¡ng": 7637,
      "ĠKhÃ¢m": 7638,
      "ĠCanada": 7639,
      ",-": 7640,
      "Ġngáº¯c": 7641,
      "ĠKÃ´ng": 7642,
      ".ThiÃªn": 7643,
      ";Xin": 7644,
      "Sá»Ń": 7645,
      "TÃ¡c": 7646,
      "Tuyá»ĩt": 7647,
      "Ġcá»¥p": 7648,
      "ĠthÆ°á»Ľt": 7649,
      "Ġbá»¡": 7650,
      "ĠÄĲáº¹p": 7651,
      "ĠquÃ¡nh": 7652,
      "ĠÃĲÃł": 7653,
      "ermione": 7654,
      ".P": 7655,
      "AN": 7656,
      "Ġáº©u": 7657,
      "ĠÄĳÆ¡": 7658,
      "ĠbÆ°á»Łi": 7659,
      "Ġchong": 7660,
      "ThoÃ¡ng": 7661,
      "ĠghÃ¬m": 7662,
      ":âĢĿ": 7663,
      "ux": 7664,
      "Thoa": 7665,
      "ĠhÃ¡c": 7666,
      ".Táº¥t": 7667,
      ".(": 7668,
      "sky": 7669,
      "Ŀng": 7670,
      "ĠliÃªm": 7671,
      "Ġvon": 7672,
      "Ġnong": 7673,
      "ĠTrÃ¡i": 7674,
      "QuÃªn": 7675,
      "Ġcháº¡nh": 7676,
      "á»ĭa": 7677,
      "ita": 7678,
      "ĠnÃ²i": 7679,
      "ĠCIA": 7680,
      "ĠPi": 7681,
      "Vá»¥": 7682,
      "ĠFrancis": 7683,
      ",m": 7684,
      ".VáºŃy": 7685,
      "Hiáº¿u": 7686,
      "don": 7687,
      "Ġbá»Ł": 7688,
      "ĠbÃ³n": 7689,
      "ĠnÃ£": 7690,
      "ĠInternet": 7691,
      "!)": 7692,
      ";Pháº£i": 7693,
      "Má»ĳi": 7694,
      "ĠvÃª": 7695,
      "ĠxÃ©n": 7696,
      "ĠKy": 7697,
      "ĠPhÃłm": 7698,
      "Ġxá»īn": 7699,
      ".NhÃł": 7700,
      "Vinh": 7701,
      "ĠmÃ¡o": 7702,
      "Ġbáº¥c": 7703,
      "Ġbus": 7704,
      "Ġrá»ĭn": 7705,
      "ida": 7706,
      ";ÃĲ": 7707,
      "Máº§y": 7708,
      "Ġbiáº¿m": 7709,
      "ĠTá»³": 7710,
      "Ġmá»§i": 7711,
      "ĠMÃ¹a": 7712,
      "ÃĶNG": 7713,
      "ĠGÃł": 7714,
      "ari": 7715,
      ".TiÃªu": 7716,
      "Ãģi": 7717,
      "-phÃª": 7718,
      "PhÃ¡t": 7719,
      "Ġyá»ĥm": 7720,
      "Da": 7721,
      "Ġau": 7722,
      "ĠlÃºi": 7723,
      "Ġlá»įng": 7724,
      "ĠBÃªn": 7725,
      "ĠAp": 7726,
      "ĠGiÃ³": 7727,
      "ĠKhuyáº¿t": 7728,
      "Äĳáº¿n": 7729,
      ".Buá»ķi": 7730,
      "row": 7731,
      "awa": 7732,
      "sau": 7733,
      "ĠHuáº¥n": 7734,
      "âĢľKhÃ´ng": 7735,
      "PhiÃªn": 7736,
      "ĠHá»ī": 7737,
      "ĠÆłi": 7738,
      "ĠmÄ©m": 7739,
      "To": 7740,
      "Ġtáº£o": 7741,
      "Ġcá»Ĺi": 7742,
      "ĠgiÃªng": 7743,
      "Ngá»§": 7744,
      "Thuyá»ģn": 7745,
      "Thá»«a": 7746,
      "ĠMarie": 7747,
      ".Minh": 7748,
      "Ġmá»ım": 7749,
      "ĠnhÄĥm": 7750,
      "Ġxáº§m": 7751,
      "Ġrá»£p": 7752,
      "Ġrá»Ľm": 7753,
      "Tá»īnh": 7754,
      "Ġgá»ıng": 7755,
      ".**": 7756,
      ";G": 7757,
      "tá»«": 7758,
      "ĠmÃ¡nh": 7759,
      "ĠrÆ°á»Łi": 7760,
      "Ġvá»ĵng": 7761,
      "Tá»ĭnh": 7762,
      "ĠviÃªm": 7763,
      "anda": 7764,
      "!ÃĶng": 7765,
      "?Tiá»ĥu": 7766,
      "ĠlÃ¨o": 7767,
      "ĠrÃ³c": 7768,
      "ÄĲá»Ļi": 7769,
      "ĠChe": 7770,
      "Ġquyá»ĩt": 7771,
      "ĠmÃ³i": 7772,
      "Ġquáº¡i": 7773,
      "Ġhá»Ŀi": 7774,
      "Ġhá»§i": 7775,
      "ĠBo": 7776,
      "Thá»¥y": 7777,
      "ĠhÃ²i": 7778,
      "Ġká»ĩch": 7779,
      "Chim": 7780,
      "ĠlÃºn": 7781,
      "Ġmáº©y": 7782,
      "ĠCÃ¡": 7783,
      "ĠBÃ²": 7784,
      "Ġkhá»ĭt": 7785,
      "Ã¨ne": 7786,
      "Ġcháº·p": 7787,
      ".VÄĥn": 7788,
      ".Sá»Ł": 7789,
      "nÄĥm": 7790,
      "yl": 7791,
      "Ġnháº¡i": 7792,
      "Ġchiáº¿t": 7793,
      "ence": 7794,
      "ica": 7795,
      "Ġsum": 7796,
      "igh": 7797,
      "ĠJuli": 7798,
      "Dá»įc": 7799,
      "ros": 7800,
      "á»īnh": 7801,
      "Ġráº¡n": 7802,
      "Ã©r": 7803,
      "ĠDiá»ħn": 7804,
      "Ġná»Ľt": 7805,
      "ele": 7806,
      "ĠMarc": 7807,
      "ovich": 7808,
      "Ġ+": 7809,
      "Ġmá»ĵn": 7810,
      "Ġ.&": 7811,
      "ĠPha": 7812,
      "ĠhÃ³i": 7813,
      "ĠChá»īnh": 7814,
      "anna": 7815,
      ";khÃ´ng": 7816,
      "áº¬": 7817,
      "ĠtÃ©p": 7818,
      "ĠgÃ¡p": 7819,
      "ĠTV": 7820,
      "Ġquáº¯p": 7821,
      "Ġthá»ıi": 7822,
      "ĠMáº¡": 7823,
      ";ngÆ°á»Ŀi": 7824,
      "Ġyá»ĥu": 7825,
      "Ġsalon": 7826,
      ";NÃ³": 7827,
      "Tá»ķ": 7828,
      "Váº¿t": 7829,
      "ĠÆ°á»¡n": 7830,
      "ĠHung": 7831,
      "Ġtrá»Ľ": 7832,
      "uss": 7833,
      "ĠHonda": 7834,
      "KiÃªn": 7835,
      "gr": 7836,
      "Ġcomp": 7837,
      "Ġráº¯m": 7838,
      "ĠNgoÃłi": 7839,
      "Ġá»±c": 7840,
      ".ÄĲÃ´ng": 7841,
      "Ġnháº±ng": 7842,
      "Ġsho": 7843,
      "Ġtrá»ĵi": 7844,
      "ĠÄĲáºŃu": 7845,
      "ĠTráºŃn": 7846,
      "ĠXe": 7847,
      "Phá»¥": 7848,
      ".c": 7849,
      ".Cho": 7850,
      "Xuá»ĳng": 7851,
      "Ġcáº¥n": 7852,
      "Ġnhiáº¿p": 7853,
      "Ġxá»ĳn": 7854,
      "ĠTá»įa": 7855,
      "ĠHÆ°": 7856,
      "ĠHan": 7857,
      "ĠMÃ©n": 7858,
      "ĠBon": 7859,
      "ĠBá»ĳc": 7860,
      "ĠKá»ĥ": 7861,
      "ĠngoÃ¨o": 7862,
      "ÃĬN": 7863,
      "ld": 7864,
      "Ġå": 7865,
      "á»©t": 7866,
      "Ġnáº¡ng": 7867,
      "ĠnhÄ©": 7868,
      "ĠhÃ£o": 7869,
      "ĠSá»ĳng": 7870,
      "-ra": 7871,
      ";Táº¡i": 7872,
      "HáºŃu": 7873,
      "Nhá»ĭ": 7874,
      "Xung": 7875,
      "ĠTer": 7876,
      "ĠTá»ĳn": 7877,
      "ĠBÃłnh": 7878,
      "Ġtoáº¡i": 7879,
      "ĠXÃª": 7880,
      "ĠÃĲá»Ļ": 7881,
      "ĠIm": 7882,
      "ĠKhÃŃ": 7883,
      "Ġ...-": 7884,
      "Ġcháº¿ch": 7885,
      "-lÃª": 7886,
      "ĠLee": 7887,
      "á»¦a": 7888,
      "las": 7889,
      "nam": 7890,
      "ĠvÃ´ng": 7891,
      "Ġgá»ĵng": 7892,
      "Ġquáº¿": 7893,
      "Ġkha": 7894,
      "ĠNÄĥng": 7895,
      "ĠCáºŃn": 7896,
      "ĠCáºŃp": 7897,
      "ĠPoirot": 7898,
      "ĠDa": 7899,
      "ĠQuÃª": 7900,
      "Giáº£i": 7901,
      "PhÃ¡p": 7902,
      "BÃ¡": 7903,
      "ole": 7904,
      "Ġmon": 7905,
      "ĠkÃ¨o": 7906,
      "áº¥á»µ": 7907,
      "ĠLond": 7908,
      "ĠPle": 7909,
      "ĠThao": 7910,
      "Ġnhá»Ľp": 7911,
      "Váº¡n": 7912,
      "ĠÄĳÃªnh": 7913,
      "Ġmáº«m": 7914,
      "Ġtráº·c": 7915,
      "ĠTung": 7916,
      "ĠBáº§n": 7917,
      "Triáº¿t": 7918,
      "Ġngoa": 7919,
      "ouk": 7920,
      "Ġáº¤y": 7921,
      ";D": 7922,
      ";Ai": 7923,
      "SÃ³ng": 7924,
      "ĠlÃŃt": 7925,
      "Ġcá»¯u": 7926,
      "Ġlá»¥ng": 7927,
      "ĠÄĲÃ¡ng": 7928,
      "ĠKennedy": 7929,
      "uit": 7930,
      "Thiá»ĩn": 7931,
      "GiÃł": 7932,
      "XÃ£": 7933,
      "ĠgÃłn": 7934,
      "ĠrÃ³i": 7935,
      "ĠkhÆ°á»Ľc": 7936,
      "ĠNe": 7937,
      "ĠÄĲÃ¡": 7938,
      "Ġngoáº¯c": 7939,
      "itz": 7940,
      "Ġquá»Ŀ": 7941,
      "GÃ¡i": 7942,
      "Tai": 7943,
      "kin": 7944,
      "ĠÄĥ": 7945,
      "Ġphá»«ng": 7946,
      "aka": 7947,
      "ape": 7948,
      ";MÃły": 7949,
      "CÃ¡": 7950,
      "MÃ³n": 7951,
      "váºŃy": 7952,
      "ĠbÃºi": 7953,
      "ĠnhÃ¢m": 7954,
      "ĠkhÃłng": 7955,
      "ĠCÄĥn": 7956,
      "ĠÄĲáº¡m": 7957,
      "ĠkhÃ¨": 7958,
      "ora": 7959,
      "ĠphiÃ¡": 7960,
      "?L": 7961,
      "Su": 7962,
      "phÃ": 7963,
      "ĠdÃ³": 7964,
      "Ġtrá»Ŀ": 7965,
      "ĠkÃŃp": 7966,
      ";A": 7967,
      "SÃłi": 7968,
      "nÃªn": 7969,
      "Ġcom": 7970,
      "ĠgiáºŃm": 7971,
      "uá»ĳm": 7972,
      "ĠHÃ²n": 7973,
      "ĠHinh": 7974,
      "ÄĲá»Ļc": 7975,
      "ati": 7976,
      "ChÃŃn": 7977,
      "ĠMarx": 7978,
      "ĠCá»Ńa": 7979,
      "ĠNghÄ©": 7980,
      "ĠBá»ĩnh": 7981,
      "ĠÃ³": 7982,
      "ĠvÃ³i": 7983,
      "Ġgiáº¯t": 7984,
      "ĠDáºŃu": 7985,
      "ĠÃĲÆ°á»£c": 7986,
      "Ġnhá»Łn": 7987,
      "ĠngÆ°Ã²i": 7988,
      "NÃ¨": 7989,
      "Ráº±ng": 7990,
      "iz": 7991,
      "Ġmeo": 7992,
      "Ġnhá»ĳn": 7993,
      "Ġdáº¡c": 7994,
      "ĠxÃºp": 7995,
      "ĠHit": 7996,
      "ĠKhÃºc": 7997,
      "ĠDinh": 7998,
      "Ġngoáº·t": 7999,
      "ĠNhiá»ĩm": 8000,
      "alia": 8001,
      "ling": 8002,
      "iku": 8003,
      ".ChÃº": 8004,
      "ner": 8005,
      "Ġsá»Ļt": 8006,
      "ĠKhÃ´n": 8007,
      "ĠTrÃ¹ng": 8008,
      "Thuá»ĳc": 8009,
      "athan": 8010,
      "ĠVNCH": 8011,
      ";CÃ¡c": 8012,
      "táº¥t": 8013,
      "ĠlÃªu": 8014,
      "Ġcháº©n": 8015,
      "ĠCÆ°": 8016,
      "ĠMÃ´": 8017,
      "ĠSing": 8018,
      "ĠNghÃª": 8019,
      "ĠTranh": 8020,
      "erine": 8021,
      "Tá»©": 8022,
      "ĠtÃ´á»ĭ": 8023,
      "ĠkhÃªu": 8024,
      ".Chu": 8025,
      "dale": 8026,
      "we": 8027,
      "ĠtÃ²i": 8028,
      "ĠxiÃªm": 8029,
      "Ã©l": 8030,
      "ĠBÃ´": 8031,
      "ÄĲiá»ĩn": 8032,
      "ĠâĢĶ": 8033,
      "ĠJon": 8034,
      ".ÄĲÆ°á»Ŀng": 8035,
      "PhÃ³": 8036,
      "Ġliá»ĩm": 8037,
      "Ġchuá»ĳt": 8038,
      "Ġdáº·c": 8039,
      "ĠNiáº¿t": 8040,
      "QuÃ¡ch": 8041,
      "ya": 8042,
      "á»«a": 8043,
      "Ġlá»ĵm": 8044,
      "ĠmÃ¨m": 8045,
      "Ġquáº¡ng": 8046,
      "TrÃ¡c": 8047,
      "Ġkháº¯t": 8048,
      "ĠRo": 8049,
      ".VÃ¢n": 8050,
      "Ġthá»ģu": 8051,
      "Â».": 8052,
      "BÄĥng": 8053,
      "Ġná»ĳc": 8054,
      "Ġguá»Ļc": 8055,
      "Ġlá»³": 8056,
      "ano": 8057,
      "ĠLÅ©": 8058,
      "iá»ħng": 8059,
      "ĠUá»ĳng": 8060,
      "olÃ©on": 8061,
      "-tÆ¡": 8062,
      "rad": 8063,
      ".VÅ©": 8064,
      "out": 8065,
      "ĠKhuáº¥t": 8066,
      "ĠngÃ²ai": 8067,
      ";ChÃº": 8068,
      "SÄ©": 8069,
      "ek": 8070,
      "Ġcáº¡ch": 8071,
      "ĠrÃłn": 8072,
      "Ġvá»ĵn": 8073,
      "ĠLáº¡": 8074,
      "Ġtoáº¡c": 8075,
      "ĠtoÃ¡ng": 8076,
      "Ġá»Ľi": 8077,
      "ĠCháº£": 8078,
      "ĠAlÃ´": 8079,
      ";Ng": 8080,
      "Ĥng": 8081,
      "ĠÄĳiá»ĩt": 8082,
      "Ġnhuyá»ħn": 8083,
      "ĠThÃ¬n": 8084,
      "ĠTiÃªm": 8085,
      "ĠkhÃ¬": 8086,
      "itt": 8087,
      "Ġchá»Łm": 8088,
      "ĠEli": 8089,
      "akuin": 8090,
      "ĠCalif": 8091,
      ",b": 8092,
      "Cá»Ń": 8093,
      "TÃ©": 8094,
      "lÃºc": 8095,
      "Ġkiáº¿t": 8096,
      "Ġhá»¥i": 8097,
      "aya": 8098,
      "ĠCÃ¹": 8099,
      "ÄĲinh": 8100,
      "Ġdá»ģ": 8101,
      "Ġngoi": 8102,
      "ĠGáº§n": 8103,
      "ĠPháº©m": 8104,
      "ĠTá»Ľi": 8105,
      "ĠHá»£i": 8106,
      "Ġchá»Ļi": 8107,
      "fa": 8108,
      "ll": 8109,
      "vá»ģ": 8110,
      "ĠÄĳÃ¬": 8111,
      "ĠÄĳÃ©t": 8112,
      "Ġhiá»ģm": 8113,
      "ĠNor": 8114,
      "ĠHáºŃn": 8115,
      "ĠBÃª": 8116,
      "ĠÄĲÆ°a": 8117,
      "Ġtháº¿ch": 8118,
      "...!": 8119,
      "ĠĠĠĠĠĠĠĠĠĠĠĠĠ": 8120,
      "ĠxoÃ¨": 8121,
      "ĠÃ´tÃ´": 8122,
      "ĠcÆ°u": 8123,
      "Ġnhá»ĳ": 8124,
      "ĠsÃ¬nh": 8125,
      "air": 8126,
      "ĠHÆ¡n": 8127,
      "ÄĲá»Ļ": 8128,
      "Ġbua": 8129,
      "ĠChá»©c": 8130,
      ".Cuá»Ļc": 8131,
      "III": 8132,
      "KhÃ³i": 8133,
      "ordan": 8134,
      ".Trá»Ŀi": 8135,
      "Ġcá»Ļm": 8136,
      "ĠsÃ²": 8137,
      "ĠchÃµng": 8138,
      "ĠphÃ¹ng": 8139,
      "ĠMáº¡t": 8140,
      "ĠSon": 8141,
      "ĠXung": 8142,
      "ĠRe": 8143,
      "ĠPháº¥n": 8144,
      "ĠNháº«n": 8145,
      "ĠrÃ¬u": 8146,
      "á»ģu": 8147,
      "!âĢĿ,": 8148,
      ";ÄĲá»«ng": 8149,
      "á»±a": 8150,
      "Ġváº±n": 8151,
      "ĠbÃ´n": 8152,
      "ĠgÃ¡o": 8153,
      "Ġchuá»ĳc": 8154,
      "aud": 8155,
      "Ġná»ĭch": 8156,
      "ĠMax": 8157,
      "ĠqÃºy": 8158,
      "!.": 8159,
      "ĠvÃŃt": 8160,
      "ĠsÆ°á»£ng": 8161,
      "ĠÄĳá»Ľp": 8162,
      "ĠdÃŃu": 8163,
      "Ġbá»¡n": 8164,
      "Ġmá»Ńa": 8165,
      "ĠLáº¥y": 8166,
      ":--": 8167,
      "ĠchÃ¡c": 8168,
      "ĠOa": 8169,
      "-thá»": 8170,
      "Ġlá»Łm": 8171,
      "NN": 8172,
      "oo": 8173,
      "ĠÄĳÆ°á»Ŀi": 8174,
      "Ġnhá»Ļt": 8175,
      "ĠnhÃ©o": 8176,
      "Ġdáº¥m": 8177,
      "Ġgiun": 8178,
      "chia": 8179,
      "Ġlá»įn": 8180,
      "ĠNgáº¡c": 8181,
      "ĠAs": 8182,
      "ĠXÃŃ": 8183,
      "Ġghiá»ģn": 8184,
      "ornia": 8185,
      "ĠLondon": 8186,
      "John": 8187,
      "Ġá»ĵm": 8188,
      "háº¯n": 8189,
      "ĠLÆ°á»£m": 8190,
      "Ġngoai": 8191,
      "Ã¨re": 8192,
      "ÄĳÃ³": 8193,
      "ura": 8194,
      "ĠcafÃ©": 8195,
      ".Cháº³ng": 8196,
      ".Phong": 8197,
      "Má»ĵ": 8198,
      "Tam": 8199,
      "ĠÄĳáº©u": 8200,
      "Ġváº£ng": 8201,
      "Ġbiá»ģn": 8202,
      "Ġnáº£i": 8203,
      "ĠngÄĥm": 8204,
      "ĠÄĲiá»ĥn": 8205,
      "Ġ.--": 8206,
      "ĠTráº¡i": 8207,
      "Má»«ng": 8208,
      "ĠÃĲÃ¬nh": 8209,
      ".Tuyáº¿t": 8210,
      "ique": 8211,
      "Ġnáº§n": 8212,
      "Ġnháº§y": 8213,
      "Ġkhiáº¿m": 8214,
      "ĠMo": 8215,
      "ĠBÆ°á»Łi": 8216,
      "ĠKhÃ¡": 8217,
      "ĠSn": 8218,
      "ĠSáº¯c": 8219,
      "âĢĿ!": 8220,
      "ĠchÃ³p": 8221,
      "ĠTá»¥": 8222,
      ".Láº¡i": 8223,
      ".CÃ´ng": 8224,
      "ĠToáº£n": 8225,
      "ĠCarol": 8226,
      "hanouk": 8227,
      "],": 8228,
      "ĠPet": 8229,
      "ĠThuyáº¿t": 8230,
      "Ġtoáº¡": 8231,
      "ĠNhÆ°Æ¡ng": 8232,
      "abeth": 8233,
      "KhÃ³c": 8234,
      "ĠJeff": 8235,
      "?)": 8236,
      "Máº¡c": 8237,
      "Tá»ĳng": 8238,
      "rÃ´": 8239,
      "Ġtrá»Ļi": 8240,
      "ĠQui": 8241,
      "ĠRin": 8242,
      "Cháº¥n": 8243,
      "asa": 8244,
      "-cÃ´": 8245,
      ".Phi": 8246,
      "KhÃ´i": 8247,
      "Ġkeng": 8248,
      "ĠTÆ°á»£ng": 8249,
      "ĠOli": 8250,
      "Ġnhuá»ĳm": 8251,
      "ĠxÃ©p": 8252,
      "Ġquá»Ł": 8253,
      "á»Łm": 8254,
      "ĠBÃºt": 8255,
      "Chá»ĭu": 8256,
      "ĠxoÃłng": 8257,
      "ÃĲiá»ģu": 8258,
      "ĠÃģc": 8259,
      "ĠnghÃªu": 8260,
      "NhÃ³m": 8261,
      ".Ngá»įc": 8262,
      "Táº¡m": 8263,
      "cÃ¡c": 8264,
      "ron": 8265,
      "ĠgÃŃ": 8266,
      "Ġrá»¯a": 8267,
      "ĠXt": 8268,
      "ĠmÃ´t": 8269,
      "ngh": 8270,
      "Ġtong": 8271,
      "ĠvÆ°á»£n": 8272,
      "Ġngáº©m": 8273,
      "Ġháº¿": 8274,
      "ĠTra": 8275,
      "Nhung": 8276,
      "ĠAt": 8277,
      ".Lá»¥c": 8278,
      "ĠhÃªn": 8279,
      "ÃĮ": 8280,
      "ĠmÆ°á»Ľp": 8281,
      "Ġbá»¥m": 8282,
      "ĠLáº¡y": 8283,
      "ĠBÃºm": 8284,
      "Ġphá»ĵn": 8285,
      "ĠtoÃ¡i": 8286,
      "Ġthuá»ĵng": 8287,
      "ĠPhÃ¡ch": 8288,
      "ĠIt": 8289,
      "rew": 8290,
      "garet": 8291,
      ";R": 8292,
      "IV": 8293,
      "KhÃ": 8294,
      "ft": 8295,
      "ger": 8296,
      "po": 8297,
      "ĠÄĳÃ¹m": 8298,
      "ĠvÃ¹n": 8299,
      "Ġtráº§y": 8300,
      "á»Łng": 8301,
      "âĢĺ": 8302,
      "áº½n": 8303,
      "ĠPháº§n": 8304,
      "Phu": 8305,
      "µn": 8306,
      "ĠÄĳung": 8307,
      "ĠdÃ²n": 8308,
      "Ġdá»į": 8309,
      "ĠMáº¡n": 8310,
      "ĠBuá»ķi": 8311,
      "ĠKiá»ĥm": 8312,
      "Ġkháº£m": 8313,
      ".VÃło": 8314,
      "-ma": 8315,
      "cháº¯c": 8316,
      "ĠCalifornia": 8317,
      ".Qua": 8318,
      ";ThÃ¬": 8319,
      "IS": 8320,
      "be": 8321,
      "Ġnoi": 8322,
      "Ġngáº¡nh": 8323,
      "ĠdÃ¡o": 8324,
      "ĠTáº¯c": 8325,
      "ĠHam": 8326,
      "ĠLin": 8327,
      "ĠIvan": 8328,
      "Lá»Ńa": 8329,
      ";r": 8330,
      "GÃ¬": 8331,
      "Ġnáº¥ng": 8332,
      "Ġre": 8333,
      "Ġchoai": 8334,
      "Ġchoang": 8335,
      "ĠMáº§y": 8336,
      "Ġxá»¥p": 8337,
      "ĠCuá»Ļi": 8338,
      "ierre": 8339,
      "Ġis": 8340,
      "Ġtuyá»ģn": 8341,
      "Ġgáº·ng": 8342,
      "ĠchÃ¹n": 8343,
      "ĠCá»±u": 8344,
      "ĠTruyá»ģn": 8345,
      "ĠchÃŃm": 8346,
      "ĠÄĳom": 8347,
      "illy": 8348,
      ".BÃªn": 8349,
      "ĠChá»Ŀ": 8350,
      "Ġtrá»«u": 8351,
      "theo": 8352,
      "khov": 8353,
      "BÃ¡nh": 8354,
      "mÃ¬nh": 8355,
      "ÃĤn": 8356,
      "ĠhoÃ¡n": 8357,
      "ĠTrÃ¹m": 8358,
      "Ġná»Ľ": 8359,
      "ĠÄĳoÃ¡": 8360,
      "ĠXi": 8361,
      "HoÃ¡": 8362,
      ".ÄĲÃºng": 8363,
      "ĠToÃ¡n": 8364,
      "Lau": 8365,
      "Lá»ĳi": 8366,
      "Mao": 8367,
      "up": 8368,
      "ĠlÃµa": 8369,
      "Ġdiáº¿m": 8370,
      "Ġhuyá»ħn": 8371,
      "Ġsá»įt": 8372,
      "ĠsÃ¡m": 8373,
      "ĠDar": 8374,
      "Ġkháº»": 8375,
      "ĠMá»¥": 8376,
      "Äĳá»«ng": 8377,
      ".Bá»Łi": 8378,
      "app": 8379,
      "TáºŃp": 8380,
      "rus": 8381,
      "ĠÄĳáºŃn": 8382,
      "ĠÄĳáº£n": 8383,
      "ĠxÃ¨o": 8384,
      "ĠBiá»ĩt": 8385,
      "Ġtrá»ĩ": 8386,
      "ĠÃĲiá»ģn": 8387,
      "Lá»¡": 8388,
      "Ġngá»Ļp": 8389,
      ".ChÃŃnh": 8390,
      "Ġtem": 8391,
      "Ġsáº§n": 8392,
      "ĠtrÃłm": 8393,
      "Ġdes": 8394,
      "ÃŃp": 8395,
      "ĠBiá»ĩn": 8396,
      "ĠSá»Ńu": 8397,
      "Há»¡i": 8398,
      "PhÃ¹": 8399,
      "ON": 8400,
      "hin": 8401,
      "res": 8402,
      "Ġbáº¥n": 8403,
      "Ġhá»·": 8404,
      "ĠLáº§u": 8405,
      "ĠBá»ĵi": 8406,
      "Ġná»ĭt": 8407,
      "ĠQuyáº¿t": 8408,
      ".BÃ¡c": 8409,
      ";CáºŃu": 8410,
      "Há»¯u": 8411,
      "chÃº": 8412,
      "sdale": 8413,
      "táº¡i": 8414,
      "ĠkÃ©": 8415,
      "Ġthá»Ńa": 8416,
      "ĠÄĲá»ķng": 8417,
      "ena": 8418,
      "ĠRá»ĵng": 8419,
      "ĠRich": 8420,
      "Lá»ħ": 8421,
      "PhÃ¹ng": 8422,
      "ows": 8423,
      "DÃ¹ng": 8424,
      "dore": 8425,
      "oáº¡t": 8426,
      "âĻ": 8427,
      "Ġbáºµng": 8428,
      "ĠrÃ¬a": 8429,
      "ĠShi": 8430,
      "Ġkháº¡o": 8431,
      "Ġkáº½m": 8432,
      ";!": 8433,
      "Cuá»ĳn": 8434,
      "KÃ¬a": 8435,
      "LuÃ´n": 8436,
      "VÃ²ng": 8437,
      "Ġal": 8438,
      "ĠnhÃ´m": 8439,
      "Ġthiá»ĥn": 8440,
      "ĠthÆ°á»£t": 8441,
      "Ġxáº©m": 8442,
      "Ġtaá»µ": 8443,
      "ĠÄĳÃ¡t": 8444,
      "ĠDum": 8445,
      "ĠNhÃ£n": 8446,
      ".Tráº§n": 8447,
      "evin": 8448,
      "********": 8449,
      "Ġen": 8450,
      "ĠlÃµi": 8451,
      "Ġsáº¥n": 8452,
      "ĠtrÅ©ng": 8453,
      "ĠtrÃ¢m": 8454,
      "ĠrÄĥm": 8455,
      "ĠÄĲÃ¡n": 8456,
      "ese": 8457,
      "ĠAlexand": 8458,
      "ĠváºŃá»µ": 8459,
      "-KhÃ´ng": 8460,
      "HuyÃªn": 8461,
      "Mua": 8462,
      "bo": 8463,
      "nay": 8464,
      "¡p": 8465,
      "ngÃły": 8466,
      "ĠnhÃ£i": 8467,
      "ĠTÃ²ng": 8468,
      "Ġdá»ıng": 8469,
      "Nghá»ģ": 8470,
      "ĠGal": 8471,
      "ÄĲá»ģ": 8472,
      "Ġfor": 8473,
      "Ġjean": 8474,
      ";Tr": 8475,
      ";CÃ²n": 8476,
      ";Tao": 8477,
      "gan": 8478,
      "ts": 8479,
      "ĠnhÃ£o": 8480,
      "ĠgÆ°á»Ŀm": 8481,
      "ĠsáºŃy": 8482,
      "ĠdÃ¡c": 8483,
      "Ġvá»«ng": 8484,
      "Ġbá»Ńa": 8485,
      "ĠLiá»ĩu": 8486,
      "ĠTráº¡ng": 8487,
      "Nhu": 8488,
      "ĠAnne": 8489,
      "ĠChá»ĵng": 8490,
      ".Ãģnh": 8491,
      ";VÃ¢ng": 8492,
      "ChÃ¡n": 8493,
      "Láº¯m": 8494,
      "Ġláº¡o": 8495,
      "há»į": 8496,
      "ĠnhÃ²e": 8497,
      "ĠrÆ°á»Ľn": 8498,
      "ĠTrá»©": 8499,
      "ark": 8500,
      "ÄĲá»§": 8501,
      ".ÄĲÃ£": 8502,
      "tháº±ng": 8503,
      "-TÃ´i": 8504,
      ".Tháº§y": 8505,
      "Oanh": 8506,
      "Táº¿t": 8507,
      "ĠnÃºng": 8508,
      "Ġtá»¥m": 8509,
      "Ġlá»ın": 8510,
      "ĠLÃ²ng": 8511,
      "ĠBin": 8512,
      "ĠthÃºi": 8513,
      "Má»ĩt": 8514,
      "ĠbÃŃm": 8515,
      "ĠWind": 8516,
      "iko": 8517,
      ".Thá»Ŀi": 8518,
      "iv": 8519,
      "Ġnáº±ng": 8520,
      "Ã´Ãª": 8521,
      "ĠCas": 8522,
      "ĠHermione": 8523,
      "Ġsá»§ng": 8524,
      "Quanh": 8525,
      "QuÃ¡i": 8526,
      "ĠRáºŃp": 8527,
      "Giáº¥c": 8528,
      "Ġcá»Ļp": 8529,
      "ĠLouis": 8530,
      ".Theo": 8531,
      ".Gia": 8532,
      "ĠvÃ³t": 8533,
      "chÃłng": 8534,
      "ĠMÄ©": 8535,
      "ĠBá»¯a": 8536,
      "ĠSal": 8537,
      "ĠChiá»ĥu": 8538,
      "Tá»Ŀ": 8539,
      "ĠthÃ´á»ĭ": 8540,
      "!BÃł": 8541,
      "-Em": 8542,
      ";Trá»Ŀi": 8543,
      "XÃ©t": 8544,
      "ct": 8545,
      "cÃ´ng": 8546,
      "Ġcui": 8547,
      "Ġliáº¿p": 8548,
      "ĠsáºŃm": 8549,
      "ami": 8550,
      "ĠQÃºy": 8551,
      "ĠoÃ¡i": 8552,
      "oss": 8553,
      ";anh": 8554,
      "ĠtÄĥn": 8555,
      "Ġpháº¯c": 8556,
      "hÃ¡t": 8557,
      "ĠbÃłu": 8558,
      "Ġnhá»Ľn": 8559,
      "Ġxum": 8560,
      "ili": 8561,
      "ĠIII": 8562,
      "!Anh": 8563,
      "ĠtÃºa": 8564,
      "Ġtháº¹o": 8565,
      "ĠLÃ´": 8566,
      "ĠThÃł": 8567,
      "Ġtrá»ĭch": 8568,
      "Ġrá»ıi": 8569,
      "ĠGiáº£n": 8570,
      "ĠBá»ģn": 8571,
      "ĠÆ¯á»Ľc": 8572,
      "ĠAngel": 8573,
      "can": 8574,
      "khá»": 8575,
      "á»Ľt": 8576,
      "Ġsá»ĵi": 8577,
      "ĠdÃ¬m": 8578,
      "ĠHakuin": 8579,
      "ĠÄĲÃłng": 8580,
      "ĠPÃª": 8581,
      "NhiÃªn": 8582,
      "Ġcá»©a": 8583,
      "Tháº¯m": 8584,
      "ĠthÃ¹y": 8585,
      "Ġkháº£nh": 8586,
      "Ġvuá»Ļt": 8587,
      ",v": 8588,
      "My": 8589,
      "Ġmáº§n": 8590,
      "ĠTony": 8591,
      "ĠCanh": 8592,
      "Ġsá»Ŀn": 8593,
      "Nhiá»ĩm": 8594,
      "Ġbá»ĳp": 8595,
      "ĠhÃ³c": 8596,
      "ĠJul": 8597,
      "Hoan": 8598,
      ".ÄĲÃ´i": 8599,
      "ĠHá»ıi": 8600,
      "ade": 8601,
      "ĠDá»ĭu": 8602,
      "ĠHolmes": 8603,
      ".NgoÃłi": 8604,
      "OH": 8605,
      "Ġtáº±ng": 8606,
      "ĠTÃ¨o": 8607,
      "ĠLes": 8608,
      "ĠKat": 8609,
      "Ġghim": 8610,
      "rikÃ´": 8611,
      "ĠNhuáºŃn": 8612,
      ";V": 8613,
      ";Ba": 8614,
      "Fran": 8615,
      "Peter": 8616,
      "Ġä": 8617,
      "ĠÃ³i": 8618,
      "ĠtÃ³t": 8619,
      "ĠlÃ³a": 8620,
      "Ġbáº¹": 8621,
      "ĠxÃ¨": 8622,
      "Ġbá»§n": 8623,
      "ĠMer": 8624,
      "ĠBl": 8625,
      "ĠBá»ķn": 8626,
      "Ġmáº¹o": 8627,
      "Vá»ĩ": 8628,
      "GiÃ¡m": 8629,
      "Ġnghá»ĩch": 8630,
      "ĠChá»Ľ": 8631,
      "-ni": 8632,
      "arlett": 8633,
      "Háº¡o": 8634,
      "ĠnÃŃch": 8635,
      "Ġgá»ĵ": 8636,
      "Ġren": 8637,
      "ĠdÃºm": 8638,
      "ĠTáº§u": 8639,
      "ĠTiáº¿p": 8640,
      "ĠLáº¡ng": 8641,
      "Ġháº¡p": 8642,
      "ĠRÃ´": 8643,
      ".TÃªn": 8644,
      "ĠthÃ³p": 8645,
      "tha": 8646,
      "uke": 8647,
      "Ļi": 8648,
      "ĠbáºŃm": 8649,
      "Ġxáº¿ch": 8650,
      "ĠBáº¯t": 8651,
      "ĠÄĲá»©ng": 8652,
      "ĠRÃµ": 8653,
      "Giao": 8654,
      "ĠCá»ı": 8655,
      "Ġvá»ın": 8656,
      "ĠmÃłnh": 8657,
      "ÄĲÃ¬nh": 8658,
      "Trai": 8659,
      "ĠtoÃ©": 8660,
      "ĠQuá»³": 8661,
      "ĠXÃ³m": 8662,
      "ĠOs": 8663,
      "ĠChá»«ng": 8664,
      "KÃŃnh": 8665,
      "La": 8666,
      "Ġkham": 8667,
      "ĠphÃ¨o": 8668,
      "ĠBÃ¡n": 8669,
      "ĠSat": 8670,
      "Ġkhuá»µ": 8671,
      "Ġruá»ĵng": 8672,
      "Giai": 8673,
      ".Máº·t": 8674,
      "low": 8675,
      "ĠPleiku": 8676,
      ";Nhá»¯ng": 8677,
      "Sam": 8678,
      "ĠÆ°Æ¡n": 8679,
      "ĠchÃły": 8680,
      "ĠxÆ°á»£c": 8681,
      "ĠTáº£n": 8682,
      "Ġthá»Ľ": 8683,
      "ĠnÃłá»µ": 8684,
      "ĠCal": 8685,
      "ĠLÃłi": 8686,
      "áº«ng": 8687,
      "Ġhoáº¯t": 8688,
      "ĠSarah": 8689,
      "Ġlum": 8690,
      "ĠkháºŃp": 8691,
      "ĠLá»¥a": 8692,
      "ÃĲÃºng": 8693,
      "Ġnguáº©y": 8694,
      "ThÃ¬nh": 8695,
      "Ġcá»¡i": 8696,
      "ChuÃ´ng": 8697,
      "bledore": 8698,
      "SÃ¢n": 8699,
      "Ġxáº¹p": 8700,
      "ĠTuyáº¿n": 8701,
      "Ġhá»Ľ": 8702,
      "ĠÄĲCS": 8703,
      "ala": 8704,
      "ĠEr": 8705,
      "idd": 8706,
      "Háº£o": 8707,
      "LÃ£m": 8708,
      "biáº¿t": 8709,
      "cá»©": 8710,
      "ga": 8711,
      "Ãį": 8712,
      "ĠchÃ´m": 8713,
      "ĠÄĳá»±": 8714,
      "Ġquáº«y": 8715,
      "ĠLáº½": 8716,
      "ĠVáº¥n": 8717,
      "ÄĲáº·ng": 8718,
      "ĠÃĲá»ĵng": 8719,
      "ĠJose": 8720,
      "Ġcuá»Ļi": 8721,
      "Lá»ĩnh": 8722,
      "ĠLuc": 8723,
      "ĠBá»ı": 8724,
      "ĠHenry": 8725,
      "encer": 8726,
      "-Hoa": 8727,
      ";ChÃ¡u": 8728,
      "Sáº¯c": 8729,
      "Ġtáº¹o": 8730,
      "Ġláº£m": 8731,
      "Ġlá»ĳp": 8732,
      "Ġken": 8733,
      "ĠNÃªn": 8734,
      "ĠBÃ¡i": 8735,
      "ĠVáºŃt": 8736,
      "Quáº¿": 8737,
      "Ġláº¡p": 8738,
      "ĠPhiÃªu": 8739,
      "ĠNhá»Ŀ": 8740,
      "ThuáºŃn": 8741,
      "Khá»ĳn": 8742,
      "pháº": 8743,
      "uki": 8744,
      "ĠnÃºc": 8745,
      "ĠxÃ³c": 8746,
      "ĠTÃ¢u": 8747,
      "otov": 8748,
      "ĠMÆ°á»Ŀng": 8749,
      "Ġrá»¥a": 8750,
      "ĠGen": 8751,
      "ĠThÃ¹": 8752,
      "ago": 8753,
      "uá»µt": 8754,
      "ĠNapolÃ©on": 8755,
      ".Chiáº¿c": 8756,
      "ĠHÃ¡ch": 8757,
      "ĠkhÃ¡o": 8758,
      "ĠTruy": 8759,
      "Thy": 8760,
      "ĠnghÃ©": 8761,
      "ĠUá»·": 8762,
      "ĠhuÆ¡": 8763,
      "Má»Ļng": 8764,
      "Rá»«ng": 8765,
      "rÃ©": 8766,
      "tiáº¿ng": 8767,
      "hÃ©t": 8768,
      "Ġky": 8769,
      "Ġgáº«m": 8770,
      "Ġchá»ıng": 8771,
      "ĠthÃ£i": 8772,
      "Ġsá»Ľ": 8773,
      "ĠLáº·c": 8774,
      "ere": 8775,
      "ĠhÃ¡y": 8776,
      "ÄĲá»ĭa": 8777,
      "ĠhÃºc": 8778,
      "OHNN": 8779,
      "ES": 8780,
      "ĠhuÃ¢n": 8781,
      "Ġhá»£t": 8782,
      "Ġgiáº«y": 8783,
      "Ġbá»§a": 8784,
      "Ġrad": 8785,
      "ĠPer": 8786,
      "Thá»ĥ": 8787,
      "CÆ°á»Ŀng": 8788,
      "SÃ´ng": 8789,
      "min": 8790,
      "Ġvá»ī": 8791,
      "Ġxáº¯c": 8792,
      "ĠMur": 8793,
      "Nhi": 8794,
      "Ġthoáº¯ng": 8795,
      "The": 8796,
      "Gian": 8797,
      "Lá»±c": 8798,
      "!âĢ¦": 8799,
      ",nhÆ°ng": 8800,
      ".Má»Ĺi": 8801,
      ";Khi": 8802,
      ";LÃłm": 8803,
      "HÃ¨n": 8804,
      "Hannibal": 8805,
      "chel": 8806,
      "ÄĲem": 8807,
      "ĠhÃ¡u": 8808,
      "ĠÄĲá»©a": 8809,
      "ĠÃļy": 8810,
      "ĠJohnson": 8811,
      "Ġxá»ķm": 8812,
      ";:": 8813,
      ";ÄĲÃºng": 8814,
      "if": 8815,
      "Ġnháº©u": 8816,
      "Ġsáº¡m": 8817,
      "ĠtrÃ³c": 8818,
      "ĠkhiÃªn": 8819,
      "ĠMang": 8820,
      "ĠXong": 8821,
      "ĠÄĲá»£i": 8822,
      "ÃĲá»«ng": 8823,
      "usan": 8824,
      "ĠhÃ¹m": 8825,
      ".ThÃ¹y": 8826,
      ";.-": 8827,
      "Ġten": 8828,
      "ĠtÃ¨": 8829,
      "Ġnhom": 8830,
      "ĠNay": 8831,
      "ÄĲiá»ĥm": 8832,
      "ĠThiáº¿p": 8833,
      "ĠTá»ĭch": 8834,
      "Ġngaá»µ": 8835,
      "Ġá»¨c": 8836,
      "OHNNY": 8837,
      "LÃŃnh": 8838,
      "Ġsáº¡o": 8839,
      "ĠtrÃ©o": 8840,
      "ĠLÃ¡": 8841,
      "ĠBiá»ģn": 8842,
      "ĠBÆ°u": 8843,
      "ĠBuá»ĵn": 8844,
      "Ġthá»ĥu": 8845,
      "ĠDÆ°á»£c": 8846,
      "ChÆ¡i": 8847,
      "Ġ:âĢľ": 8848,
      "Ġxoan": 8849,
      "ĠÄĳÃ´la": 8850,
      "ĠÂ».": 8851,
      "!Rá»ĵi": 8852,
      ";Ã´ng": 8853,
      "Car": 8854,
      "LuÃ¢n": 8855,
      "ĠÄĳáº£nh": 8856,
      "Ġliáº¿n": 8857,
      "ĠÄĳá»«": 8858,
      "ĠTÃ¡i": 8859,
      "Ġemail": 8860,
      "ĠVang": 8861,
      "ĠDiÃªu": 8862,
      "ĠÃį": 8863,
      "ĠChim": 8864,
      "Ġáº¤m": 8865,
      ".Tháº¡ch": 8866,
      "Dá»«ng": 8867,
      "ach": 8868,
      "let": 8869,
      "ĠvÃ¨": 8870,
      "Ġgáº¯m": 8871,
      "Ġcá»¯": 8872,
      "TrÃ¬nh": 8873,
      "Ġngoáº¡c": 8874,
      ".BÃ¬nh": 8875,
      "......": 8876,
      "ust": 8877,
      "ĠWhi": 8878,
      "ĠArthur": 8879,
      "?KhÃ´ng": 8880,
      "Lá»Ļc": 8881,
      "gin": 8882,
      "zabeth": 8883,
      "Ġkm": 8884,
      "Ġsáº¥y": 8885,
      "ĠxÆ°á»Ľc": 8886,
      "Ġthá»§a": 8887,
      "ĠphÃ¹n": 8888,
      "ĠSch": 8889,
      "TrÆ°á»Łng": 8890,
      "ĠÃĲáº¡t": 8891,
      "icia": 8892,
      "ĠNhá»¡": 8893,
      "ĠHuynh": 8894,
      "ĠChuá»Ļt": 8895,
      ";?": 8896,
      "LÃłn": 8897,
      "ĠÃ©n": 8898,
      "Ġráº¯p": 8899,
      "Ġdá»ģnh": 8900,
      "Ġrá»¥i": 8901,
      "ryst": 8902,
      "âĻ¥": 8903,
      "Ġkhuá»µu": 8904,
      "BÃŃ": 8905,
      "Bob": 8906,
      "Hiá»ĩp": 8907,
      "Ġgáº«u": 8908,
      "Ġthiáº¿c": 8909,
      "Ġxiáº¿c": 8910,
      "ĠTiá»ħn": 8911,
      "Ġthá»ĩ": 8912,
      "Trinh": 8913,
      "Ġbá»Ļp": 8914,
      "Ġtráº£o": 8915,
      "ĠChrist": 8916,
      "ÄĳÃª": 8917,
      "ĠOK": 8918,
      "ĠEn": 8919,
      "-xu": 8920,
      "!NÃ³i": 8921,
      "Ġngáº¥y": 8922,
      "ĠtrÃ¡t": 8923,
      "Ġsá»¥a": 8924,
      "ĠPhá»ī": 8925,
      "hie": 8926,
      ".Tuáº¥n": 8927,
      "ĠJer": 8928,
      "ĠMartin": 8929,
      "-Sao": 8930,
      "ies": 8931,
      "ĠnÃ´m": 8932,
      "ĠGI": 8933,
      "ĠThÃ¢m": 8934,
      "ĠHá»Ĵ": 8935,
      ".Do": 8936,
      "uá»µch": 8937,
      "ĠSaint": 8938,
      "Tinh": 8939,
      "Táº¥n": 8940,
      "dÃ¹": 8941,
      "ĠÃŃ": 8942,
      "Ġgáº¡n": 8943,
      "Ġxá»Ł": 8944,
      "Ġká»ĭt": 8945,
      "TrÃł": 8946,
      "Ġná»±ng": 8947,
      "uá»ģ": 8948,
      "ĠIra": 8949,
      "unez": 8950,
      ".ViÃªn": 8951,
      "ĠxÃ¬u": 8952,
      "rystal": 8953,
      "Cáº¡nh": 8954,
      "VÃ¹ng": 8955,
      "xem": 8956,
      "Ġtáº±m": 8957,
      "Ġval": 8958,
      "Ġtrau": 8959,
      "ĠrÃ¹": 8960,
      "Ġchá»ģ": 8961,
      "Ġchá»ı": 8962,
      "Ġquáº«n": 8963,
      "ĠNai": 8964,
      "ĠCáº£ng": 8965,
      "ĠTruyá»ĩn": 8966,
      "ene": 8967,
      "Chá»ĳc": 8968,
      "ĠJan": 8969,
      "-mi": 8970,
      "ĠgoÃ¡": 8971,
      ".Quan": 8972,
      "Kiá»ĥu": 8973,
      "sá»±": 8974,
      "ĠnhÃµng": 8975,
      "Ġbá»£m": 8976,
      "Ġrá»Ĺ": 8977,
      "ĠngoÃ¡y": 8978,
      "ĠGo": 8979,
      "ĠÃĲÃło": 8980,
      "ĠUng": 8981,
      "ĠNhá»±t": 8982,
      "Lá»£i": 8983,
      "ĠSihanouk": 8984,
      ":_": 8985,
      ";Trong": 8986,
      "chÃ¡u": 8987,
      "Ġváº¡ng": 8988,
      "háº¡": 8989,
      "Ġsim": 8990,
      "ĠphÃ´n": 8991,
      "Ġháºµng": 8992,
      "Ġkhá»Ń": 8993,
      "ars": 8994,
      "ĠPhilip": 8995,
      ".ÄĲoÃłn": 8996,
      "Nháº¯c": 8997,
      "Ġradio": 8998,
      ".Chá»£t": 8999,
      "ĠniÃªm": 9000,
      "Ġnhiáº¿c": 9001,
      "ĠTÃ¡nh": 9002,
      "ĠTá»©c": 9003,
      ".Háº¡": 9004,
      "Lá»ĭch": 9005,
      "Ġvá»Łn": 9006,
      "âĻ¥âĻ¥": 9007,
      "!).": 9008,
      "col": 9009,
      "xki": 9010,
      "ĠngÃ¡o": 9011,
      "Ġhanh": 9012,
      "ĠLuyá»ĩn": 9013,
      "ÄĲáº¡t": 9014,
      "Ġdá»£m": 9015,
      "ĠSá»¹": 9016,
      "ĠNgÃ¢u": 9017,
      "ĠNgoan": 9018,
      "ĠChiáº¿u": 9019,
      "Ġchun": 9020,
      "Ġxá»ĩ": 9021,
      "ĠWeb": 9022,
      "ney": 9023,
      ";Cháº¯c": 9024,
      "bin": 9025,
      "Ġmáº¡p": 9026,
      "Ġváº¡i": 9027,
      "Ġgá»ķ": 9028,
      "chuyá»ĩn": 9029,
      "ĠMÃ¢n": 9030,
      "ĠBor": 9031,
      "ime": 9032,
      "Ġláº¡á»ĭ": 9033,
      "ĠphÃªn": 9034,
      "Ġchá»ķng": 9035,
      "-kh": 9036,
      "Quyáº¿t": 9037,
      "Ġrai": 9038,
      "Æ¡r": 9039,
      "Ġthá»įt": 9040,
      "Truyá»ĩn": 9041,
      "ĠRy": 9042,
      "Giá»¯": 9043,
      "âĢĻs": 9044,
      "ĠMuá»Ļi": 9045,
      "?ChÃłng": 9046,
      "TH": 9047,
      "kho": 9048,
      "Ġsá»ĵn": 9049,
      "ĠrÃ¡m": 9050,
      "Ġvá»¯a": 9051,
      "ĠCá»Ń": 9052,
      "ĠHá»ĳi": 9053,
      "ĠBá»ĳi": 9054,
      "ĠDor": 9055,
      "ĠloÃł": 9056,
      "ÃĶm": 9057,
      "Ġvá»£t": 9058,
      "Ġxá»ĭch": 9059,
      "Ġhá»ķm": 9060,
      "hoáº·c": 9061,
      "!NhÆ°ng": 9062,
      "tÃ¬nh": 9063,
      "Ġváº·c": 9064,
      "Ġgáº±m": 9065,
      "ĠrÃºng": 9066,
      "Ġráº¡t": 9067,
      "ĠdÃ³c": 9068,
      "Ġcá»¥ng": 9069,
      "Ġvá»ĥnh": 9070,
      "Ġquáº·t": 9071,
      "ĠSer": 9072,
      "ĠNgu": 9073,
      "Ġmá»Łn": 9074,
      "âĢľCÃ³": 9075,
      "esa": 9076,
      "eli": 9077,
      ";thá»": 9078,
      "usa": 9079,
      "Ġghiáº¿c": 9080,
      "umi": 9081,
      "Kháº¯p": 9082,
      ";HÃ£y": 9083,
      "£ng": 9084,
      "Ġliá»ģm": 9085,
      "Ġcá»ĵng": 9086,
      "ĠTok": 9087,
      "Ġtá»įt": 9088,
      "âĢ¢": 9089,
      "Ġsá»ĭt": 9090,
      "ota": 9091,
      "Ġkhá»ģu": 9092,
      "Ngá»«ng": 9093,
      "ĠÃĲáº¡o": 9094,
      ".Bá»ĳn": 9095,
      "ĠFlor": 9096,
      "cky": 9097,
      "ĠSmith": 9098,
      "ĠDumbledore": 9099,
      "!CÃ´": 9100,
      ".Vá»Ľi": 9101,
      "BÃ¡n": 9102,
      "Mon": 9103,
      "MÃłn": 9104,
      "di": 9105,
      "ĠlÃ©m": 9106,
      "Ġbá»¥t": 9107,
      "Ġháº©m": 9108,
      "âĢ¦!": 9109,
      "ĠThÃ¡m": 9110,
      "ĠÃĲÆ°á»Ŀng": 9111,
      "ĠLá»Ĺi": 9112,
      "Ġlá»Ļp": 9113,
      ".Linh": 9114,
      "Ġlá»Łn": 9115,
      "AM": 9116,
      "bÃª": 9117,
      "á»§i": 9118,
      "ĠtÃ©t": 9119,
      "ĠÄĳáº«y": 9120,
      "Ġnuá»Ľc": 9121,
      "Ġguá»ĵng": 9122,
      "Ġst": 9123,
      "ĠsÄĥm": 9124,
      "Ġsui": 9125,
      "Ġchá»ĵi": 9126,
      "chÆ°a": 9127,
      "ĠhÃ©n": 9128,
      "ĠThuá»µ": 9129,
      "ĠDen": 9130,
      "ĠGar": 9131,
      "Ġcháº¡ng": 9132,
      "ĠThuáº¥n": 9133,
      "Ġnhuáº§n": 9134,
      "Æ¯á»": 9135,
      "ĠSamuel": 9136,
      "Ni": 9137,
      "RO": 9138,
      "XÃ¡c": 9139,
      "per": 9140,
      "tÃªn": 9141,
      "ĠÆ°Æ¡m": 9142,
      "ĠlÃº": 9143,
      "Ġnáº¥n": 9144,
      "...?": 9145,
      "Tá»ģ": 9146,
      "ĠJen": 9147,
      "ĠnhoÃł": 9148,
      "Ġnaá»µ": 9149,
      "á»¶": 9150,
      "ĠtÃ¢ng": 9151,
      "hÃ¨o": 9152,
      "ĠTuá»ķi": 9153,
      "ĠmÃło": 9154,
      "ĠNic": 9155,
      "ĠCat": 9156,
      "ĠHÃ¡t": 9157,
      "ĠBÃ³ng": 9158,
      "ĠhÃ¢y": 9159,
      "ĠGáº·p": 9160,
      "Ġkháº¥p": 9161,
      "âĢ¦,": 9162,
      "Æ¯á»ľ": 9163,
      ",Äĳ": 9164,
      ".Quáº£": 9165,
      ";Tháº±ng": 9166,
      "Di": 9167,
      "tao": 9168,
      "ĠtÃło": 9169,
      "ĠsÃºp": 9170,
      "ĠsÃ²m": 9171,
      "ĠSáº½": 9172,
      "Ġrá»§n": 9173,
      "uar": 9174,
      ".Báº¥t": 9175,
      ".Lá»Ŀi": 9176,
      "oko": 9177,
      ",cÃ´": 9178,
      "Ġnáº¡nh": 9179,
      "Ġquáº©y": 9180,
      "ĠgiÃ£i": 9181,
      "Ã©e": 9182,
      "Ġkhiu": 9183,
      "ĠPierre": 9184,
      "ĠKin": 9185,
      "Ġá»Ń": 9186,
      ".--": 9187,
      "Ġnháº¹t": 9188,
      ";chá»": 9189,
      ".Há»ĵ": 9190,
      ".Cao": 9191,
      "ĠEdward": 9192,
      "iano": 9193,
      "Ġcafe": 9194,
      "Miá»ħn": 9195,
      "TQ": 9196,
      "ĠÄĳÆ°": 9197,
      "Ġgá»ĳm": 9198,
      "ĠrÃ²n": 9199,
      "ĠCÃ¹ng": 9200,
      "ĠHÃłi": 9201,
      "ĠMÃ¡i": 9202,
      "ĠÄĲáº¥ng": 9203,
      "ĠPÃ´": 9204,
      "ĠSy": 9205,
      "ĠSÃ¹ng": 9206,
      "ĠSar": 9207,
      "Thá»Ł": 9208,
      "ĠxoÄĥn": 9209,
      "ChÃ³": 9210,
      "lipp": 9211,
      "tháº¥y": 9212,
      ".ÄĲá»ĥ": 9213,
      "uu": 9214,
      "ven": 9215,
      "á»ĩnh": 9216,
      "ĠThÃº": 9217,
      "ĠVÆ°á»£ng": 9218,
      "ÄĲá»Ļng": 9219,
      "ÄĲÃ¡p": 9220,
      "Ġkhá»ĥnh": 9221,
      "ĠChÆ°": 9222,
      "omas": 9223,
      "uá»ĩch": 9224,
      "Bá»¥ng": 9225,
      "andy": 9226,
      ".ThÃłnh": 9227,
      "-giá»": 9228,
      "ght": 9229,
      "á»Ĳi": 9230,
      "ĠHitler": 9231,
      "!Má»Ļt": 9232,
      "Náº¯m": 9233,
      "ford": 9234,
      "Ńc": 9235,
      "Ġsáº©y": 9236,
      "ĠchiÃªng": 9237,
      "Ġchá»Ńng": 9238,
      "ĠTÃ¡o": 9239,
      "Ġthá»ĵ": 9240,
      "ĠPe": 9241,
      "ĠchÃ¡i": 9242,
      "ĠnguáºŃy": 9243,
      "ilia": 9244,
      "unt": 9245,
      "Ġsaá»ı": 9246,
      "ĠToÃł": 9247,
      ".CáºŃu": 9248,
      ";BÃ¢y": 9249,
      "ĠÄĤng": 9250,
      "Ġnuá»Ļt": 9251,
      "Ġcháº¥u": 9252,
      "Ġbáº£i": 9253,
      "ĠxoÃł": 9254,
      "Ġsofa": 9255,
      "ĠAnn": 9256,
      "ĠnghÃ¨n": 9257,
      "ila": 9258,
      "olf": 9259,
      "ĠchÃ¨n": 9260,
      ";TháºŃt": 9261,
      ";á»ª": 9262,
      "Bá»ĵ": 9263,
      "yÃªu": 9264,
      "Ĺn": 9265,
      "Ġmá»ĳng": 9266,
      "ĠxÃ³i": 9267,
      "ĠTÃ¬m": 9268,
      "ĠNob": 9269,
      "ĠNgÃ¢m": 9270,
      "Ġkhoáº¯n": 9271,
      "Chia": 9272,
      "GiáºŃn": 9273,
      "ĠUS": 9274,
      ".TrÆ°á»Ŀng": 9275,
      "!NgÆ°á»Ŀi": 9276,
      ";NgÃły": 9277,
      "Máº£nh": 9278,
      "UNG": 9279,
      "den": 9280,
      "gie": 9281,
      "vin": 9282,
      "Ġit": 9283,
      "aine": 9284,
      "ĠNÆ¡i": 9285,
      "Ġngá»¥t": 9286,
      "ĠDÆ°á»Ľi": 9287,
      "Ġcháº·c": 9288,
      "ĠTá»µ": 9289,
      ".ÄĲi": 9290,
      "ĠGiá»¯a": 9291,
      ".Pháº£i": 9292,
      "Le": 9293,
      "UR": 9294,
      "vÃ´": 9295,
      "ĠlÃºm": 9296,
      "ĠmÃ²i": 9297,
      "ĠnÃªm": 9298,
      "Ġguit": 9299,
      "Ġpháº¥p": 9300,
      "ĠCap": 9301,
      "ĠHag": 9302,
      "ĠHoáº¡i": 9303,
      "ĠChá»¯": 9304,
      ".LÃ¢m": 9305,
      "-rÃª": 9306,
      "________": 9307,
      ".Vá»£": 9308,
      ".QuÃ¢n": 9309,
      ";ÄĲi": 9310,
      "MÅ©i": 9311,
      "uáºŃt": 9312,
      "Ġcáº¡m": 9313,
      "hÃ©": 9314,
      "Ġnhá»į": 9315,
      "Ġlá»¥p": 9316,
      "ance": 9317,
      "ĠVÆ°á»Ŀn": 9318,
      "Ġxoáº£ng": 9319,
      "-viáº¿t": 9320,
      "ĠCatherine": 9321,
      "-Thanh": 9322,
      ".Giá»¯a": 9323,
      ";NÃły": 9324,
      "ChÃ¡nh": 9325,
      "Mang": 9326,
      "ĠÄĳÆ°á»": 9327,
      "Ġváº¡c": 9328,
[...]
